{
  "version": "1.0",
  "truncation": null,
  "padding": null,
  "added_tokens": [
    {
      "id": 29998,
      "content": "<end>",
      "single_word": false,
      "lstrip": false,
      "rstrip": false,
      "normalized": false,
      "special": true
    },
    {
      "id": 29999,
      "content": "<sum>",
      "single_word": false,
      "lstrip": false,
      "rstrip": false,
      "normalized": false,
      "special": true
    }
  ],
  "normalizer": null,
  "pre_tokenizer": {
    "type": "ByteLevel",
    "add_prefix_space": false,
    "trim_offsets": true,
    "use_regex": true
  },
  "post_processor": {
    "type": "ByteLevel",
    "add_prefix_space": true,
    "trim_offsets": false,
    "use_regex": true
  },
  "decoder": {
    "type": "ByteLevel",
    "add_prefix_space": true,
    "trim_offsets": true,
    "use_regex": true
  },
  "model": {
    "type": "BPE",
    "dropout": null,
    "unk_token": null,
    "continuing_subword_prefix": null,
    "end_of_word_suffix": null,
    "fuse_unk": false,
    "byte_fallback": false,
    "vocab": {
      "!": 0,
      "\"": 1,
      "#": 2,
      "$": 3,
      "%": 4,
      "&": 5,
      "'": 6,
      "(": 7,
      ")": 8,
      "*": 9,
      "+": 10,
      ",": 11,
      "-": 12,
      ".": 13,
      "/": 14,
      "0": 15,
      "1": 16,
      "2": 17,
      "3": 18,
      "4": 19,
      "5": 20,
      "6": 21,
      "7": 22,
      "8": 23,
      "9": 24,
      ":": 25,
      ";": 26,
      "<": 27,
      "=": 28,
      ">": 29,
      "?": 30,
      "@": 31,
      "A": 32,
      "B": 33,
      "C": 34,
      "D": 35,
      "E": 36,
      "F": 37,
      "G": 38,
      "H": 39,
      "I": 40,
      "J": 41,
      "K": 42,
      "L": 43,
      "M": 44,
      "N": 45,
      "O": 46,
      "P": 47,
      "Q": 48,
      "R": 49,
      "S": 50,
      "T": 51,
      "U": 52,
      "V": 53,
      "W": 54,
      "X": 55,
      "Y": 56,
      "Z": 57,
      "[": 58,
      "\\": 59,
      "]": 60,
      "^": 61,
      "_": 62,
      "`": 63,
      "a": 64,
      "b": 65,
      "c": 66,
      "d": 67,
      "e": 68,
      "f": 69,
      "g": 70,
      "h": 71,
      "i": 72,
      "j": 73,
      "k": 74,
      "l": 75,
      "m": 76,
      "n": 77,
      "o": 78,
      "p": 79,
      "q": 80,
      "r": 81,
      "s": 82,
      "t": 83,
      "u": 84,
      "v": 85,
      "w": 86,
      "x": 87,
      "y": 88,
      "z": 89,
      "{": 90,
      "|": 91,
      "}": 92,
      "~": 93,
      "¡": 94,
      "¢": 95,
      "£": 96,
      "¤": 97,
      "¥": 98,
      "¦": 99,
      "§": 100,
      "¨": 101,
      "©": 102,
      "ª": 103,
      "«": 104,
      "¬": 105,
      "®": 106,
      "¯": 107,
      "°": 108,
      "±": 109,
      "²": 110,
      "³": 111,
      "´": 112,
      "µ": 113,
      "¶": 114,
      "·": 115,
      "¸": 116,
      "¹": 117,
      "º": 118,
      "»": 119,
      "¼": 120,
      "½": 121,
      "¾": 122,
      "¿": 123,
      "À": 124,
      "Á": 125,
      "Â": 126,
      "Ã": 127,
      "Ä": 128,
      "Å": 129,
      "Æ": 130,
      "Ç": 131,
      "È": 132,
      "É": 133,
      "Ê": 134,
      "Ë": 135,
      "Ì": 136,
      "Í": 137,
      "Î": 138,
      "Ï": 139,
      "Ð": 140,
      "Ñ": 141,
      "Ò": 142,
      "Ó": 143,
      "Ô": 144,
      "Õ": 145,
      "Ö": 146,
      "×": 147,
      "Ø": 148,
      "Ù": 149,
      "Ú": 150,
      "Û": 151,
      "Ü": 152,
      "Ý": 153,
      "Þ": 154,
      "ß": 155,
      "à": 156,
      "á": 157,
      "â": 158,
      "ã": 159,
      "ä": 160,
      "å": 161,
      "æ": 162,
      "ç": 163,
      "è": 164,
      "é": 165,
      "ê": 166,
      "ë": 167,
      "ì": 168,
      "í": 169,
      "î": 170,
      "ï": 171,
      "ð": 172,
      "ñ": 173,
      "ò": 174,
      "ó": 175,
      "ô": 176,
      "õ": 177,
      "ö": 178,
      "÷": 179,
      "ø": 180,
      "ù": 181,
      "ú": 182,
      "û": 183,
      "ü": 184,
      "ý": 185,
      "þ": 186,
      "ÿ": 187,
      "Ā": 188,
      "ā": 189,
      "Ă": 190,
      "ă": 191,
      "Ą": 192,
      "ą": 193,
      "Ć": 194,
      "ć": 195,
      "Ĉ": 196,
      "ĉ": 197,
      "Ċ": 198,
      "ċ": 199,
      "Č": 200,
      "č": 201,
      "Ď": 202,
      "ď": 203,
      "Đ": 204,
      "đ": 205,
      "Ē": 206,
      "ē": 207,
      "Ĕ": 208,
      "ĕ": 209,
      "Ė": 210,
      "ė": 211,
      "Ę": 212,
      "ę": 213,
      "Ě": 214,
      "ě": 215,
      "Ĝ": 216,
      "ĝ": 217,
      "Ğ": 218,
      "ğ": 219,
      "Ġ": 220,
      "ġ": 221,
      "Ģ": 222,
      "ģ": 223,
      "Ĥ": 224,
      "ĥ": 225,
      "Ħ": 226,
      "ħ": 227,
      "Ĩ": 228,
      "ĩ": 229,
      "Ī": 230,
      "ī": 231,
      "Ĭ": 232,
      "ĭ": 233,
      "Į": 234,
      "į": 235,
      "İ": 236,
      "ı": 237,
      "Ĳ": 238,
      "ĳ": 239,
      "Ĵ": 240,
      "ĵ": 241,
      "Ķ": 242,
      "ķ": 243,
      "ĸ": 244,
      "Ĺ": 245,
      "ĺ": 246,
      "Ļ": 247,
      "ļ": 248,
      "Ľ": 249,
      "ľ": 250,
      "Ŀ": 251,
      "ŀ": 252,
      "Ł": 253,
      "ł": 254,
      "Ń": 255,
      "á»": 256,
      "ng": 257,
      "áº": 258,
      "Ġt": 259,
      "Ġc": 260,
      "ĠÄ": 261,
      "ĠÄĳ": 262,
      "nh": 263,
      "Ãł": 264,
      "há»": 265,
      "Ġv": 266,
      "Æ°": 267,
      "Ã¡": 268,
      "iá»": 269,
      "Ġl": 270,
      "Ġtr": 271,
      "Ġk": 272,
      "Æ°á»": 273,
      "Ġb": 274,
      "hÃ": 275,
      "Ġs": 276,
      "áº¿": 277,
      "ĠÄĳá»": 278,
      "áº¡": 279,
      "Ġnh": 280,
      "áº£": 281,
      "Ġh": 282,
      "Ġth": 283,
      "ĠT": 284,
      "Ġm": 285,
      "Ãª": 286,
      "Ġn": 287,
      "Ġg": 288,
      "iá»ĩ": 289,
      "Ġd": 290,
      "Ġng": 291,
      "Ġp": 292,
      "Ġch": 293,
      "´ng": 294,
      "ĠcÃ": 295,
      "áº¥": 296,
      "Ġtá»": 297,
      "Ã¡c": 298,
      "Ãªn": 299,
      "uy": 300,
      "Ġvá»": 301,
      "Ã¢": 302,
      "Æ¡": 303,
      "ĠvÃł": 304,
      "á»Ļ": 305,
      "ĠN": 306,
      "ĠC": 307,
      "áºŃ": 308,
      "Ġkh": 309,
      "Ġq": 310,
      "Ġcá»": 311,
      "Ġhá»": 312,
      "Ġthá»": 313,
      "Ġgi": 314,
      "ong": 315,
      "Æ°á»Ŀ": 316,
      "ĠÄĳÃ": 317,
      "Ġph": 318,
      "áº§": 319,
      "an": 320,
      "Ġx": 321,
      "Äĥ": 322,
      "á»ĳ": 323,
      "iáº¿": 324,
      "Ľi": 325,
      "áº¡i": 326,
      "Ġqu": 327,
      "Ġchá»": 328,
      "Æ°á»£": 329,
      "ao": 330,
      "ĠcÃ¡c": 331,
      "ĠH": 332,
      "Ġcá»§": 333,
      "Ġcá»§a": 334,
      "ĠlÃł": 335,
      "ch": 336,
      "ĠB": 337,
      "Ġ1": 338,
      "áº¥t": 339,
      "ĠcÃ³": 340,
      "Ġr": 341,
      "Ã¬": 342,
      "ĠÄĲ": 343,
      "Ġ2": 344,
      "iá»ģ": 345,
      "Ġdá»": 346,
      "Ã¢n": 347,
      "inh": 348,
      "ĠV": 349,
      "hÃ´ng": 350,
      "iá»ĩn": 351,
      "iÃªn": 352,
      "uyá»": 353,
      "Ãły": 354,
      "ĠÄĳá»Ļ": 355,
      "á»Ł": 356,
      "iá»ĥ": 357,
      ",\"": 358,
      "Æ°á»£c": 359,
      "Æ°Æ¡": 360,
      "Ġcho": 361,
      "âĢ": 362,
      "ĠL": 363,
      "Æ°á»Ŀng": 364,
      "áº¯": 365,
      "Ġlá»": 366,
      "am": 367,
      "Ãłn": 368,
      "Æ°Æ¡ng": 369,
      "Æ°á»Ľ": 370,
      "Ãłnh": 371,
      "Ġ'": 372,
      "',": 373,
      "©c": 374,
      "ĠÄĳÆ°á»£c": 375,
      "Ġtrong": 376,
      "Ã´ng": 377,
      "iá»ģu": 378,
      "ai": 379,
      "Ġbá»": 380,
      "anh": 381,
      "Ġvá»Ľi": 382,
      "ĠÄĳÃ£": 383,
      "hÃŃ": 384,
      "Ġ(": 385,
      "±c": 386,
      "Ã´": 387,
      "Æ°á»Ŀi": 388,
      "ĠTr": 389,
      "ang": 390,
      "Ã¬nh": 391,
      "áº£i": 392,
      "áº§n": 393,
      "ay": 394,
      "áºŃn": 395,
      "ĠTh": 396,
      "ĠngÆ°á»Ŀi": 397,
      "Ã³": 398,
      "ung": 399,
      "ĠcÃ´ng": 400,
      "Ġsá»": 401,
      "áº§u": 402,
      "áº¿n": 403,
      "ĠkhÃ´ng": 404,
      "Æ°á»Ľc": 405,
      "ĵng": 406,
      "ĠM": 407,
      "ĠP": 408,
      "áº¿t": 409,
      "áº·": 410,
      "ĠnÄĥ": 411,
      "©ng": 412,
      "Ġtrá»": 413,
      "oÃłn": 414,
      "ĠS": 415,
      "Âł": 416,
      "20": 417,
      "ĠNg": 418,
      "ĠÄĳá»ĭ": 419,
      "Ġmá»": 420,
      "ÃŃ": 421,
      "Ã¡o": 422,
      "á»¯": 423,
      "Ã£": 424,
      "ĠÄĳá»Ļng": 425,
      "áº£n": 426,
      "Ã¡n": 427,
      "á»Ļt": 428,
      "iá»ĩt": 429,
      "įc": 430,
      "ÄĲ": 431,
      "in": 432,
      "ĭch": 433,
      "Ġngh": 434,
      "ĠÄĳá»ĥ": 435,
      "eo": 436,
      "Ã¢y": 437,
      "Ġtáº¡i": 438,
      "Ŀi": 439,
      "00": 440,
      "Ġ-": 441,
      "Ã¡t": 442,
      "¥c": 443,
      "uá»ĳ": 444,
      "ĠÄĳÃ³": 445,
      "Ã½": 446,
      "Ġsá»ĳ": 447,
      "Ġmá»Ļt": 448,
      "Ġtá»«": 449,
      "iá»ĩc": 450,
      "iáº¿n": 451,
      "ĠhÃ": 452,
      "ĠQ": 453,
      "Æ¡n": 454,
      "Ġphá»": 455,
      "Ãłng": 456,
      "ĠK": 457,
      "ĠphÃ": 458,
      "Ġvá»ģ": 459,
      "Ãłi": 460,
      "ĠÄĳáº¿n": 461,
      "áºŃt": 462,
      "au": 463,
      "iá»ĥm": 464,
      "\"\"": 465,
      "ĠnÄĥm": 466,
      "on": 467,
      "ĠG": 468,
      "\",\"": 469,
      "Ġviá»ĩc": 470,
      "ĠÄĳá»ĵng": 471,
      "Ġá»Ł": 472,
      "Äĥn": 473,
      "ĠnhÆ°": 474,
      "Ġhá»įc": 475,
      "ĠthÃ": 476,
      "Ġsáº": 477,
      "ĠâĢ": 478,
      "Ġho": 479,
      "á»ķ": 480,
      "ĠĠ": 481,
      "á»¯ng": 482,
      "Ãº": 483,
      "áºŃp": 484,
      "Ġnhá»¯ng": 485,
      "ĠngÃły": 486,
      "Ġhiá»ĩn": 487,
      "Ġhá»Ļ": 488,
      "Ġkhi": 489,
      "Ġ20": 490,
      "Ã¹": 491,
      "iáº¿t": 492,
      "ĠnhÃ¢n": 493,
      "ĠD": 494,
      "Ġtá»ī": 495,
      "ĠA": 496,
      "ĠNam": 497,
      "áº©": 498,
      "iÃª": 499,
      "ĠÄĳá»ĭnh": 500,
      "ĠtrÃªn": 501,
      "ĳi": 502,
      "ĠnÃły": 503,
      "Ġra": 504,
      "Ã¡ng": 505,
      "áº¥p": 506,
      "Ġgiá»": 507,
      "ĠvÃło": 508,
      "²ng": 509,
      "Ġthu": 510,
      "Ġthá»ĥ": 511,
      "±ng": 512,
      "Å©ng": 513,
      "Ġdo": 514,
      "Ġ3": 515,
      "á»Ļi": 516,
      ".\",\"": 517,
      "áº£ng": 518,
      "áº¡t": 519,
      "ĠviÃªn": 520,
      "hÃŃnh": 521,
      "Ġbá»ĭ": 522,
      "Äĥng": 523,
      "Ġsáº½": 524,
      "áº¡n": 525,
      "19": 526,
      "iá»ĩu": 527,
      "Ġquan": 528,
      "ĠViá»ĩt": 529,
      "ĠlÃłm": 530,
      "Æ°á»£ng": 531,
      "áº¡o": 532,
      "áº£o": 533,
      "ĠtrÆ°á»Ŀng": 534,
      "Ġnhiá»ģu": 535,
      "Ġquy": 536,
      "âĢĿ": 537,
      "ĠÄĳáº§u": 538,
      "Ġnghiá»ĩ": 539,
      "ĠâĢľ": 540,
      "Ã¡ch": 541,
      "ħn": 542,
      "en": 543,
      "ĥn": 544,
      "Ġsinh": 545,
      "Æ°a": 546,
      "do": 547,
      "Ġcáº£": 548,
      "ĠnhÃł": 549,
      "ĠcÆ¡": 550,
      "£p": 551,
      "ĠthÃłnh": 552,
      "Ġhá»Ļi": 553,
      "Ã¡p": 554,
      "Ġsá»±": 555,
      "Ġgia": 556,
      "Ã´i": 557,
      "uyÃªn": 558,
      "ĩnh": 559,
      "áº«": 560,
      "Ã¡i": 561,
      "ĠcÅ©ng": 562,
      "Æ°á»Ł": 563,
      "Ġchá»ī": 564,
      "Æ°á»Łng": 565,
      "Ġhá»£p": 566,
      "áº¥n": 567,
      "Ġchá»©c": 568,
      "Ġthá»Ŀi": 569,
      "ĠthÃ´ng": 570,
      "Ġtiáº¿": 571,
      "uyá»ĩ": 572,
      "hi": 573,
      "Ġtá»īnh": 574,
      "Ä©": 575,
      "áº¯c": 576,
      "Ã©": 577,
      "ĠnÆ°á»Ľc": 578,
      "Ġthá»±c": 579,
      "ģn": 580,
      "¬nh": 581,
      "ĳng": 582,
      "Ġnghá»": 583,
      "Ġtáº¿": 584,
      "Ġdá»ĭch": 585,
      "ĠgiÃ¡": 586,
      "hÃº": 587,
      "Ġká»": 588,
      "ĠCÃ´ng": 589,
      "Ġláº¡i": 590,
      "Ġtá»ķ": 591,
      "há»§": 592,
      "hÃ³": 593,
      "Ġkho": 594,
      "Ã¢m": 595,
      "ĠÄĳoÃłn": 596,
      "Ġtheo": 597,
      "Ġpháº£i": 598,
      "ĠhÃłng": 599,
      "á»ĵ": 600,
      "ĠÄĳiá»ģu": 601,
      "ĠÄĳá»ģ": 602,
      "dong": 603,
      "Ġy": 604,
      "ia": 605,
      "Ġvá»¥": 606,
      "uyá»ĩn": 607,
      "ĠhÃłnh": 608,
      "ĠdÃ¢n": 609,
      "á»Ļc": 610,
      "ĠU": 611,
      "iá»ĥn": 612,
      "ĠchÃŃnh": 613,
      "áº±ng": 614,
      "ua": 615,
      "ĠÃ´ng": 616,
      "Ãło": 617,
      "iá»ģn": 618,
      "Ã¡nh": 619,
      "tt": 620,
      "Thá»": 621,
      "ĠtÃŃ": 622,
      "áº«n": 623,
      "uá»ĳc": 624,
      "Ġnháº¥t": 625,
      "th": 626,
      "uyá»ĥn": 627,
      "Ġnghiá»ĩp": 628,
      "ĠNh": 629,
      "ĠÄĳiá»ĥm": 630,
      "uáº¥t": 631,
      "Ġcáº¥p": 632,
      "Ġtiáº¿p": 633,
      "ĠnháºŃn": 634,
      "ĠphÃ¡t": 635,
      "em": 636,
      "ĠÄĳá»ĳi": 637,
      "áº¡m": 638,
      "ĠGi": 639,
      "lao": 640,
      "Ġá»": 641,
      "ĠhÆ¡n": 642,
      "\",": 643,
      "ĠHÃł": 644,
      "Ġlu": 645,
      "²n": 646,
      "Ġbá»ĩnh": 647,
      "vn": 648,
      "ldo": 649,
      "áº·c": 650,
      "¥ng": 651,
      "uyá»ģn": 652,
      "Ġcao": 653,
      "ĠÄĳang": 654,
      "áº¡nh": 655,
      "Ġthi": 656,
      "oi": 657,
      "áº¥y": 658,
      "MT": 659,
      "áº£m": 660,
      "ps": 661,
      "ĠlÃ½": 662,
      "čĊ": 663,
      "//": 664,
      "://": 665,
      "laodong": 666,
      "ttps": 667,
      "Ġ\"\"": 668,
      "https": 669,
      "GMT": 670,
      "['": 671,
      ")\",": 672,
      "']": 673,
      "Ġbiáº¿t": 674,
      "ĠtrÃ¬nh": 675,
      "Ġsau": 676,
      "Ġbá»Ļ": 677,
      "ĠÄĲá»": 678,
      "Ã¹ng": 679,
      "ID": 680,
      "Ġdá»¥ng": 681,
      "Ġ5": 682,
      "Ġan": 683,
      "tr": 684,
      "ĠtÆ°": 685,
      "Ġ4": 686,
      "Ġmá»Ľi": 687,
      "áº¥u": 688,
      "á»Ń": 689,
      "ĠxÃ£": 690,
      "OV": 691,
      "ĠQu": 692,
      "Ġtin": 693,
      "Ġqua": 694,
      "ĠQuá»ĳc": 695,
      "er": 696,
      ",\"['": 697,
      "OVID": 698,
      "']\"": 699,
      "áº·t": 700,
      "ĠÄĳi": 701,
      "Ġlao": 702,
      "¢n": 703,
      "Ġkáº¿t": 704,
      "Ġtá»ĳ": 705,
      "ĠtÃ¡c": 706,
      "ĠNá»Ļi": 707,
      "Thá»©": 708,
      "ĠPh": 709,
      "Ġdá»±": 710,
      "Ġsáº£n": 711,
      "ĠphÃ²ng": 712,
      "ĠÃ¡n": 713,
      "á»ĳc": 714,
      "ĠbÃ¡o": 715,
      "21": 716,
      "á»ķi": 717,
      "įng": 718,
      "Ġtu": 719,
      "Ġdoanh": 720,
      "áº¯t": 721,
      "ĠtÄĥng": 722,
      "¹ng": 723,
      "Ġlá»Ľ": 724,
      "ĠBá»Ļ": 725,
      "ĠcÃ²n": 726,
      "Ġkhá»": 727,
      "ĠThá»": 728,
      "áº¡ng": 729,
      "Ġcáº§u": 730,
      "Ġxuáº¥t": 731,
      "Ġ0": 732,
      "Æ°á»Ľng": 733,
      "Ġbáº£o": 734,
      "Ã´n": 735,
      "Ġxe": 736,
      "ĠhÃ¬nh": 737,
      "ĠtoÃłn": 738,
      "ĠtrÆ°á»Ľc": 739,
      "ĠÄĳá»ĭa": 740,
      "oáº¡i": 741,
      "ĠlÆ°á»£ng": 742,
      "ĠCOVID": 743,
      "ĠcÃ¡ch": 744,
      "Ġchá»§": 745,
      "ĠnÃ³": 746,
      "ĠTP": 747,
      "uyá»ħn": 748,
      "Ġtiá»ģn": 749,
      "ĠTrung": 750,
      "ĠnhÆ°ng": 751,
      "Ġkhu": 752,
      "Æ¡i": 753,
      "iÃªu": 754,
      "ar": 755,
      "Ġlá»±c": 756,
      "ĠphÆ°Æ¡ng": 757,
      "iá»ĥu": 758,
      "Ġtriá»ĥn": 759,
      "ĠcÃ¹ng": 760,
      "ĠthÃ¬": 761,
      "Ġgiáº£i": 762,
      "á»Ļng": 763,
      "Ġnay": 764,
      "..": 765,
      "ĠthÃ¡ng": 766,
      "ĠnÄĥng": 767,
      "ho": 768,
      "ĠNguyá»ħn": 769,
      "ĠX": 770,
      "iá»ĩm": 771,
      "uá»Ļc": 772,
      "áº¹": 773,
      "Ġcon": 774,
      "Ġgiao": 775,
      "á»¹": 776,
      "al": 777,
      "ĠÄĳáº¡o": 778,
      "áº»": 779,
      "Ġvá»ĭ": 780,
      "Ġsá»Ń": 781,
      "Ġkinh": 782,
      "ĠtÃ¢m": 783,
      "Ġquáº£": 784,
      "áº¿u": 785,
      "ĠphÃ¡p": 786,
      "ĠÄĳÆ°á»Ŀng": 787,
      "iá»ħn": 788,
      "ĠmÃł": 789,
      "ĠCh": 790,
      "Ġtra": 791,
      "Ġ6": 792,
      "ĠtÃ¬nh": 793,
      "Ġgian": 794,
      "ĠlÃªn": 795,
      "LÄĲ": 796,
      "«a": 797,
      "ĠtÃ´i": 798,
      "Ġráº¥t": 799,
      "Å©": 800,
      "Ġthá»§": 801,
      "Ãªu": 802,
      "Ġtháº¿": 803,
      "Ġ10": 804,
      "ie": 805,
      "Ã²": 806,
      "áº¡ch": 807,
      "Ġthá»ĭ": 808,
      "Ġtá»¥c": 809,
      "ĠkhÃ³": 810,
      "Ã©t": 811,
      "Ġhoáº¡t": 812,
      "ac": 813,
      "Ġquyáº¿t": 814,
      "áº©m": 815,
      "ĠtáºŃp": 816,
      "áº¯ng": 817,
      "ĠnÃªn": 818,
      "Ġquá»ĳc": 819,
      "ĠchÃº": 820,
      "Ġtáº¡o": 821,
      "Ġvi": 822,
      "áº£nh": 823,
      "ĠY": 824,
      "Ġtrá»£": 825,
      "Ġtriá»ĩu": 826,
      "oÃłi": 827,
      "Ġgiá»¯": 828,
      "ĠÄĳáº¡i": 829,
      "iÃªm": 830,
      "Ġsá»Ł": 831,
      "ĠphÃŃ": 832,
      "000": 833,
      "áº©n": 834,
      "ĠTheo": 835,
      "Ġtá»Ľi": 836,
      "Ġty": 837,
      "ĠliÃªn": 838,
      "Ġgiá»Ľi": 839,
      "ĠÃ": 840,
      "ĠÄĳÃ¢y": 841,
      "Ìģ": 842,
      "Ġváº«n": 843,
      "ĠVÄĥn": 844,
      "Ġhuyá»ĩn": 845,
      "),": 846,
      "ĠtÃłi": 847,
      "18": 848,
      "ĠÄĳá»Ļi": 849,
      "ĠÄĳá»ķ": 850,
      "Th": 851,
      "Ġso": 852,
      "im": 853,
      "Ġcáº§n": 854,
      "ĠgiÃ¡o": 855,
      "Ġkhai": 856,
      "ĠBÃ¬nh": 857,
      "á»ĳi": 858,
      "£i": 859,
      "ND": 860,
      "Ġcá»©": 861,
      "Ġtá»ĭch": 862,
      "Äĥm": 863,
      "Ġtrá»ĭ": 864,
      "ĠvÃ¬": 865,
      "Ġthá»ĳng": 866,
      "ĠkhÃ¡c": 867,
      "Ġphá»ĳ": 868,
      "Ġtá»±": 869,
      "Ã²ng": 870,
      "gi": 871,
      "Ãºc": 872,
      "Ġnhiá»ĩm": 873,
      "Ġthá»©c": 874,
      "ĠTá»ķ": 875,
      "es": 876,
      "Æ°u": 877,
      "Ã¡y": 878,
      "ĠnÃ³i": 879,
      "Ġhai": 880,
      "ĠchÆ°a": 881,
      "ĠÄĳáº¥t": 882,
      "ĠÃ½": 883,
      "ĠTrong": 884,
      "uyáº¿n": 885,
      "ĠluáºŃt": 886,
      "ĠÄĳÆ¡n": 887,
      "ĠÄĳáº¥u": 888,
      "Ġmáº¡nh": 889,
      "Ġlá»Ľn": 890,
      "Ġtrá»Ł": 891,
      "ĠHo": 892,
      "Ġ7": 893,
      "at": 894,
      "¢u": 895,
      "Ã³ng": 896,
      "Ġtrung": 897,
      "ĠtÃŃnh": 898,
      "Ġvá»±c": 899,
      "Ġtham": 900,
      "Ġpháº§n": 901,
      "ĠtiÃªu": 902,
      "Ġbáº£n": 903,
      "Ġcuá»Ļc": 904,
      "Ġdá»±ng": 905,
      "ĠR": 906,
      "Ġhá»į": 907,
      "ĠChá»§": 908,
      "or": 909,
      "HC": 910,
      "Ġkiá»ĥm": 911,
      "Ġtrá»įng": 912,
      "Ġtuyá»ĥn": 913,
      "ĠnhiÃªn": 914,
      "Ġmá»©c": 915,
      "Ġhiá»ĩu": 916,
      "Ã¡m": 917,
      "Ġgiáº£m": 918,
      "10": 919,
      "Ġcháº¥t": 920,
      "ĠÄĳá»ķi": 921,
      "Ãµ": 922,
      "ph": 923,
      "Ġchuyá»ĥn": 924,
      "ĠkhÃ¡ch": 925,
      "ĠtrÆ°á»Łng": 926,
      "ĠbÃłn": 927,
      "Ġláº§n": 928,
      "ĠAnh": 929,
      "Ġráº±ng": 930,
      "Ġná»¯": 931,
      "Ġkiáº¿n": 932,
      "Ġchá»ĳng": 933,
      "2021": 934,
      "Ġná»": 935,
      "áº£y": 936,
      "ıi": 937,
      "áº¡c": 938,
      "Ng": 939,
      "Ġanh": 940,
      "Ġbáº±ng": 941,
      "Ġca": 942,
      "Ġtá»ĳt": 943,
      "Ġ19": 944,
      "iáº¿u": 945,
      "Ġnghá»ĭ": 946,
      "Ġtuá»ķi": 947,
      "Ġ8": 948,
      "Ġ9": 949,
      "Ĺi": 950,
      "22": 951,
      "ĠbÃ¡n": 952,
      "Ġmáº·t": 953,
      "Ġhá»Ĺ": 954,
      "Ġdiá»ħn": 955,
      "ĠxÃ¢y": 956,
      "Ġcháº¿": 957,
      "«ng": 958,
      "ĠxÃ©t": 959,
      "ĠhÃ³": 960,
      "ĠÄĳiá»ĩn": 961,
      "Ġpháº¡m": 962,
      "ĠthÆ°á»Ŀng": 963,
      "Ġtrá»±c": 964,
      "ĠhÃ³a": 965,
      "ĠthÆ°Æ¡ng": 966,
      "Ġquyá»ģn": 967,
      "Ġngá»": 968,
      "Ġhá»ĩ": 969,
      "ĠÄĳÆ°a": 970,
      "ĠyÃªu": 971,
      "³ng": 972,
      "Ġáº£nh": 973,
      "Ġdá»¥c": 974,
      "ĠMá»¹": 975,
      "ĠmÃ¬nh": 976,
      "ĠcÃ¡o": 977,
      "Ġká»³": 978,
      "ĠsÄ©": 979,
      "Ġchu": 980,
      "ĠtÃŃch": 981,
      "Ġviá»ĩn": 982,
      "Ì£": 983,
      "ĠsÃ¡t": 984,
      "ĠtÆ°á»£ng": 985,
      "ĠÄĳÃ¬nh": 986,
      "Ġcáº£nh": 987,
      "Ġkhoáº£ng": 988,
      "ĠvÄĥn": 989,
      "HCM": 990,
      "įi": 991,
      "ĠF": 992,
      "Ġhá»ĵ": 993,
      "Ġban": 994,
      "ĠI": 995,
      "ÌĤ": 996,
      "ĠtrÃŃ": 997,
      "ĠngÃłnh": 998,
      "Tr": 999,
      "ĠÄĳo": 1000,
      "ĠhoÃłn": 1001,
      "Ġá»©ng": 1002,
      "ĠsÃ¡ch": 1003,
      "Ġgáº§n": 1004,
      "BND": 1005,
      "Ġthá»©": 1006,
      "Ġbiá»ĩt": 1007,
      "ĠTá»ķng": 1008,
      "ÌĢ": 1009,
      "Ġxá»Ń": 1010,
      "ĠlÃ£": 1011,
      "Ġcá»Ń": 1012,
      "Ãºp": 1013,
      "Ġnhá»": 1014,
      "ĠtráºŃn": 1015,
      "Ġváº¥n": 1016,
      "ªm": 1017,
      "Ã¡u": 1018,
      "áº·ng": 1019,
      "áº¯n": 1020,
      "ĠhÆ°á»Łng": 1021,
      "Ã¢u": 1022,
      "ĠKh": 1023,
      "ĠquÃ¡": 1024,
      "Ġhoáº·c": 1025,
      "Ġhay": 1026,
      "Ġem": 1027,
      "ĠAn": 1028,
      "áºŃu": 1029,
      "Ġchá»ĭ": 1030,
      "ĠchÃºng": 1031,
      "Ġvá»«a": 1032,
      "Ġcá»©u": 1033,
      "Ġ12": 1034,
      "áº§m": 1035,
      "Ġdáº«n": 1036,
      "ĠÄĳáº£m": 1037,
      "ĠThanh": 1038,
      "Ġpháº©m": 1039,
      "co": 1040,
      "Ġsá»©c": 1041,
      "Ġbá»ĳ": 1042,
      ").": 1043,
      "ĠHá»": 1044,
      "ĠUBND": 1045,
      "áºŃy": 1046,
      "ĠthÃªm": 1047,
      "ĠÄĳÃ¡nh": 1048,
      "ĠChÃŃnh": 1049,
      "Ġ15": 1050,
      "ĠsÃ¡ng": 1051,
      "Ä©nh": 1052,
      "ĠÄĲáº¡i": 1053,
      "ĠchÃŃ": 1054,
      "ĠâĢĵ": 1055,
      "Ġdiá»ĩn": 1056,
      "Ġlá»£i": 1057,
      "te": 1058,
      "Ġchi": 1059,
      "Ġsá»ĳng": 1060,
      "Ġlo": 1061,
      "á»ĵn": 1062,
      "ĠhÆ°á»Ľng": 1063,
      "Ġtháº¥y": 1064,
      "ĠnÃło": 1065,
      "ĠLao": 1066,
      "Ġvá»ĩ": 1067,
      "ĠVá»": 1068,
      "ĠgÃ¢y": 1069,
      "ĠTuy": 1070,
      "17": 1071,
      "ĠThá»§": 1072,
      "Ġbáº¥t": 1073,
      "ĠgiÃºp": 1074,
      "áº¥m": 1075,
      "Ġmua": 1076,
      "ĠmÃ¡y": 1077,
      "ĠnháºŃp": 1078,
      "ap": 1079,
      "Ġ11": 1080,
      "ĠláºŃp": 1081,
      "Ġloáº¡i": 1082,
      "Ġbáº¯t": 1083,
      "Ġbáº¡n": 1084,
      "ine": 1085,
      "ĠbÃ³ng": 1086,
      "Ġnghiá»ĩm": 1087,
      "el": 1088,
      "ĠgÃ³": 1089,
      "ĠthÃŃ": 1090,
      "ĠBan": 1091,
      "ĠkhÄĥn": 1092,
      "ĠnÆ¡i": 1093,
      "ĠxÃ¡c": 1094,
      "áº±": 1095,
      "Ġphá»§": 1096,
      "Ġtruyá»ģn": 1097,
      "uá»ĳng": 1098,
      "Ġkiá»ĩn": 1099,
      "11": 1100,
      "Ġphá»¥c": 1101,
      "ĠHáº£i": 1102,
      "Ġchá»©ng": 1103,
      "ĠTá»": 1104,
      "Ġbiáº¿n": 1105,
      "2020": 1106,
      "Ġchiáº¿n": 1107,
      "Ġthiáº¿t": 1108,
      "Ġquáº£n": 1109,
      "ĠThá»ĭ": 1110,
      "áº³ng": 1111,
      "ĠÄĥn": 1112,
      "áº±m": 1113,
      "ĠchuyÃªn": 1114,
      "áº§y": 1115,
      "Ġgá»": 1116,
      "uá»ĳi": 1117,
      "Ġlá»ĭch": 1118,
      "uc": 1119,
      "ĠchÃ": 1120,
      "ĠMinh": 1121,
      "Æ°ng": 1122,
      "ĠÄĳá»ģu": 1123,
      "©p": 1124,
      "12": 1125,
      "ĠngoÃłi": 1126,
      "ĠbÃł": 1127,
      "Ġkhiáº¿n": 1128,
      "Ġhuy": 1129,
      "ĠÄĳáº·c": 1130,
      "Ġthuá»Ļc": 1131,
      "Ġto": 1132,
      "ĠÄĳáº¡t": 1133,
      "Ġtráº»": 1134,
      "uá»ĵn": 1135,
      "Ġtá»ķng": 1136,
      "Ġchuáº©n": 1137,
      "įn": 1138,
      "âĢ¦": 1139,
      "ĠPhÃº": 1140,
      "ĠkÃ½": 1141,
      "ĠhÃ´": 1142,
      "ĠtÆ°á»Ľng": 1143,
      "ĠÄĳá»§": 1144,
      "ĠTPHCM": 1145,
      "ĠPhÃ³": 1146,
      "Æ°á»£t": 1147,
      "ĠtiÃªn": 1148,
      "Ġbiá»ĥu": 1149,
      "ĠÄĳá»ĳ": 1150,
      "áº·p": 1151,
      "Ã²a": 1152,
      "Ġháº¡n": 1153,
      "Ġchia": 1154,
      "...": 1155,
      "ĠbÃ¬nh": 1156,
      "Ġgiá»Ŀ": 1157,
      "iáº¿m": 1158,
      "Ġhoáº¡ch": 1159,
      "ĠvÃłng": 1160,
      "ĠÄĳÃ´": 1161,
      "ĠSá»Ł": 1162,
      "ĠdÆ°á»": 1163,
      "Ġtiáº¿n": 1164,
      "ĠÃŃ": 1165,
      "Ġphá»¥": 1166,
      "uá»ĳn": 1167,
      "Ġtá»Ń": 1168,
      "uong": 1169,
      "ĠBáº¯c": 1170,
      "ĠváºŃy": 1171,
      "á»±": 1172,
      "Ġnghá»ĩ": 1173,
      "Ķng": 1174,
      "ĠE": 1175,
      "Ġ16": 1176,
      "Ġchung": 1177,
      "ĠcÃ¡": 1178,
      "Äĳ": 1179,
      "uÃ¢n": 1180,
      "Ġá»§": 1181,
      "ĠváºŃn": 1182,
      "ĠSÆ¡n": 1183,
      "áº¡y": 1184,
      "ĠvÃ¹ng": 1185,
      "ien": 1186,
      "ĠcÃ¡n": 1187,
      "us": 1188,
      "áº©u": 1189,
      "ĠSau": 1190,
      "Ġtiáº¿t": 1191,
      "Ãłu": 1192,
      "ĭp": 1193,
      "âĢĿ.": 1194,
      "ĠCÃ¡c": 1195,
      "Ġgiá»¯a": 1196,
      "Ġtrang": 1197,
      "ĠJ": 1198,
      "¯ng": 1199,
      "ĠDÆ°Æ¡ng": 1200,
      "Ġháº¿t": 1201,
      "Ġlá»Ŀi": 1202,
      "Ġná»Ļi": 1203,
      "SD": 1204,
      "ĠchÆ°Æ¡ng": 1205,
      "ĠcÃ´": 1206,
      "oc": 1207,
      "Ġhiá»ĥm": 1208,
      "Ġkáº¿": 1209,
      "ĠnguyÃªn": 1210,
      "Ġ18": 1211,
      "ĠPhÃ": 1212,
      "CÃ´ng": 1213,
      "ĠTrÆ°á»Ŀng": 1214,
      "Ġ14": 1215,
      "Ã¬m": 1216,
      "ĠLÄĲ": 1217,
      "Ġta": 1218,
      "á»ĵi": 1219,
      "Ġnghá»ī": 1220,
      "uáº¥n": 1221,
      "Ġtuyáº¿n": 1222,
      "ĠÄĲá»ĵng": 1223,
      "ĠQuáº£ng": 1224,
      "ĠThÃłnh": 1225,
      "Ġtá»«ng": 1226,
      "ĠÄĳÃ¡": 1227,
      "Ġlá»Ľp": 1228,
      "Ġtráº£": 1229,
      "ĠÄĳÃ³ng": 1230,
      "Ã³m": 1231,
      "Ġmang": 1232,
      "Ġnáº¡n": 1233,
      "ĠlÃ£nh": 1234,
      "ĠÄĲá»©c": 1235,
      "30": 1236,
      "ty": 1237,
      "Ġxáº£y": 1238,
      "Ġly": 1239,
      "ĠmÃ´n": 1240,
      "ĠW": 1241,
      "Ġ30": 1242,
      "ĠrÃµ": 1243,
      "Ġnguá»ĵn": 1244,
      "Ġkháº©u": 1245,
      "Ġnáº¿u": 1246,
      "Ġsáº»": 1247,
      "Ġdanh": 1248,
      "hÃ¢u": 1249,
      "Ġ17": 1250,
      "ĠkhÃŃ": 1251,
      "Ġba": 1252,
      "ĠtÃ¬m": 1253,
      "Ġ2020": 1254,
      "ĠGiang": 1255,
      "PT": 1256,
      "ĠthÆ°": 1257,
      "23": 1258,
      "Ġcáº£m": 1259,
      "Ġcá»ķ": 1260,
      "Ġghi": 1261,
      "ĠĠĠ": 1262,
      "Gi": 1263,
      "Ġtay": 1264,
      "acc": 1265,
      "ºng": 1266,
      "ĠnghÄ©": 1267,
      "ĠgÃ³p": 1268,
      "Ġmuá»ĳn": 1269,
      "accine": 1270,
      "ĠsÃ¢n": 1271,
      "ĠváºŃt": 1272,
      "ol": 1273,
      "ĠBá»": 1274,
      "Ġrá»": 1275,
      "ĠÄĳá»ĳc": 1276,
      "kh": 1277,
      "Ġphá»ĳi": 1278,
      "et": 1279,
      "ĠThÃ¡i": 1280,
      "ea": 1281,
      "ĠCá»": 1282,
      "Ìī": 1283,
      "ĠChá»": 1284,
      "ĠLÄĲLÄĲ": 1285,
      "Ġthay": 1286,
      "ĠphÃ©p": 1287,
      "ĠUSD": 1288,
      "ĠmÆ°a": 1289,
      "ĠsoÃ¡t": 1290,
      "Ġbay": 1291,
      "ĠÃĶng": 1292,
      "ĠphÃº": 1293,
      "ĠbÃªn": 1294,
      "ĠTH": 1295,
      "ĠtrÃº": 1296,
      "ĠÃ¡p": 1297,
      "Ġtráº¡ng": 1298,
      "Ġmáº¡ng": 1299,
      "Ġgáº·p": 1300,
      "up": 1301,
      "NH": 1302,
      "Ġ13": 1303,
      "á»ĵm": 1304,
      "Ġ24": 1305,
      "ĠthÃ¢n": 1306,
      "áº¯p": 1307,
      "Ġcá»ĳ": 1308,
      "ĠÄĲÃ´ng": 1309,
      "Ġmá»Ĺi": 1310,
      "Ġthanh": 1311,
      "Ã¢ng": 1312,
      "ĠNhÃł": 1313,
      "Ġbá»ı": 1314,
      "¯a": 1315,
      "ĠTáº¿t": 1316,
      "ĠÄĲáº£ng": 1317,
      "iÃªng": 1318,
      "Ġliá»ĩu": 1319,
      "iá»ħ": 1320,
      "ĠquÃ¢n": 1321,
      "id": 1322,
      "ĠlÆ°Æ¡ng": 1323,
      "ĠquáºŃn": 1324,
      "ĠÄĳoáº¡n": 1325,
      "ĠÄĳÃºng": 1326,
      "2018": 1327,
      "Ġcuá»ĳi": 1328,
      "qu": 1329,
      "Ġmá»¥c": 1330,
      "ĠPhÃ²ng": 1331,
      "ĠtrÃ¡ch": 1332,
      "Ġnhanh": 1333,
      "Ġnhau": 1334,
      "ĠNinh": 1335,
      "Ġkhoa": 1336,
      "ĠNghá»": 1337,
      "ĠLiÃªn": 1338,
      "ĠdÃłi": 1339,
      "áº½": 1340,
      "ĠÄĳÄĥng": 1341,
      "ĠHá»Ļi": 1342,
      "ĠphÃ¢n": 1343,
      "iet": 1344,
      "ĠChÃ¢u": 1345,
      "á»Łi": 1346,
      "Ġgá»ĵm": 1347,
      "Ġbu": 1348,
      "Ġdu": 1349,
      "ĠTráº§n": 1350,
      "ĠnhÃ³m": 1351,
      "ĠLong": 1352,
      "ĠdÃ¹ng": 1353,
      "ĠÄĲá»Ļng": 1354,
      "ĠThu": 1355,
      "Ġbao": 1356,
      "ĠsÆ¡": 1357,
      "Ġsao": 1358,
      "ÌĽ": 1359,
      "un": 1360,
      "Ġmá»Ł": 1361,
      "Ġkháº£": 1362,
      "Ġxem": 1363,
      "á»įc": 1364,
      "Ġngay": 1365,
      "á»³": 1366,
      "is": 1367,
      "Ph": 1368,
      "ĠgÃ¬": 1369,
      "2019": 1370,
      "ĠCÄĲ": 1371,
      "á»Ńi": 1372,
      "Ġdung": 1373,
      "ĠTrÆ°á»Ľc": 1374,
      "ĠbÃłi": 1375,
      "iá»ħm": 1376,
      "Ġ2021": 1377,
      "ĠHoÃłng": 1378,
      "Ġchiá»ģu": 1379,
      "ĠphÃŃa": 1380,
      "Ġmáº¯c": 1381,
      "ĠmÃ¹": 1382,
      "ĠluáºŃn": 1383,
      "Ġmáº¥t": 1384,
      "¡ng": 1385,
      "Ġtáº£i": 1386,
      "ic": 1387,
      "ĠvÃ²ng": 1388,
      "ĠĠĠĠ": 1389,
      "Ġgá»Ńi": 1390,
      "Ġchá»įn": 1391,
      "Ġkhá»ı": 1392,
      "ld": 1393,
      "ĠthuáºŃt": 1394,
      "as": 1395,
      "ue": 1396,
      "áº©y": 1397,
      "Ġtá»ĳi": 1398,
      "âĢĿ,": 1399,
      "Ġgiáº£": 1400,
      "Ġkhá»ıe": 1401,
      "áº¯m": 1402,
      "Ġcung": 1403,
      "cong": 1404,
      "Ġlá»ĩ": 1405,
      "Ġtá»Ļ": 1406,
      "ĠÄĳáº·t": 1407,
      "ĠÃ´": 1408,
      "áºµ": 1409,
      "ĠXuÃ¢n": 1410,
      "iá»ĩp": 1411,
      "áº«u": 1412,
      "Ġyáº¿u": 1413,
      "ĳn": 1414,
      "Ġcá»Ļng": 1415,
      "áºŃm": 1416,
      "Ġvaccine": 1417,
      "ĠBH": 1418,
      "ĠLÃª": 1419,
      "Ġtinh": 1420,
      "ĠtÃªn": 1421,
      "Ġbiá»ĥn": 1422,
      "ĠcÃ¢u": 1423,
      "ĠÄĲiá»ģu": 1424,
      "Ġtháº¯ng": 1425,
      "ĠlÆ°u": 1426,
      "um": 1427,
      "Ã£o": 1428,
      "Ġkhoáº£n": 1429,
      "áºµng": 1430,
      "Ġnhiá»ħm": 1431,
      "Ġnguy": 1432,
      "Ġminh": 1433,
      "Ġ2018": 1434,
      "Ġtháº¥p": 1435,
      "Ġtiáº¿ng": 1436,
      "Ġtrao": 1437,
      "Ġcá»Ńa": 1438,
      "Ġtranh": 1439,
      "Ġtuáº§n": 1440,
      "ĠNáºµng": 1441,
      "15": 1442,
      "ĠnghÃ": 1443,
      "ĠTrá»": 1444,
      "Ġmá»įi": 1445,
      "Ã³c": 1446,
      "om": 1447,
      "ĠnÃ¢ng": 1448,
      "\"\".": 1449,
      "Ġthao": 1450,
      "ĠlÃºc": 1451,
      "ĠnghiÃªm": 1452,
      "Ġtáº¥t": 1453,
      "Ġcáº¡nh": 1454,
      "ĠngÃ¢n": 1455,
      "ÄĲT": 1456,
      "ĠO": 1457,
      "16": 1458,
      "ĠTHPT": 1459,
      "Ġhá»ıi": 1460,
      "Ġphong": 1461,
      "Ġvá»ĳn": 1462,
      "ĠÆ°Æ¡ng": 1463,
      "ĠkÃ©": 1464,
      "ĠhÃ´m": 1465,
      "ĠtrÃ¡i": 1466,
      "ĠNga": 1467,
      "Ġhá»ĵi": 1468,
      "Ġmáº¹": 1469,
      "ĠLu": 1470,
      "ĠTáº¡i": 1471,
      "Ġcá»±c": 1472,
      "ĠÄĳa": 1473,
      "ĠHÃ²a": 1474,
      "ur": 1475,
      "ıa": 1476,
      "ban": 1477,
      "ĠÄĲÃł": 1478,
      "ĠNguyÃªn": 1479,
      "bo": 1480,
      "Ġ23": 1481,
      "ĠtÆ°Æ¡ng": 1482,
      "ĠthÃº": 1483,
      "ĠBá»ĩnh": 1484,
      "da": 1485,
      "Ġxáº¿": 1486,
      "Ġbá»ķ": 1487,
      "XH": 1488,
      "il": 1489,
      "Ch": 1490,
      "ĠLá»": 1491,
      "īnh": 1492,
      "Ġláº¥y": 1493,
      "Ġpháº¡t": 1494,
      "ĠháºŃu": 1495,
      "hoi": 1496,
      "Ġnháº±m": 1497,
      "ĠÃŃt": 1498,
      "Ġ2019": 1499,
      "Ġ21": 1500,
      "Ġká»ĥ": 1501,
      "Ġbá»Łi": 1502,
      "ĠLan": 1503,
      "ĠÄĳáº©y": 1504,
      "ra": 1505,
      "Ġ25": 1506,
      "Ġsuáº¥t": 1507,
      "ĠcÆ°": 1508,
      "Łi": 1509,
      "áº¹p": 1510,
      "ĠdÃ¹": 1511,
      "ĠtiÃªm": 1512,
      "ĠGiÃ¡m": 1513,
      "Ġvá»įng": 1514,
      "Ġsang": 1515,
      "di": 1516,
      "Ġtáº¡m": 1517,
      "ĠtrÃ²": 1518,
      "Ġcá»¥": 1519,
      "Ġluyá»ĩn": 1520,
      "the": 1521,
      "HÃł": 1522,
      "há»¯ng": 1523,
      "ĠgiÃ¡m": 1524,
      "ĠÄĳÃª": 1525,
      "Ġtháº§n": 1526,
      "ĠNgoÃłi": 1527,
      "áº¡p": 1528,
      "ĠluÃ´n": 1529,
      "ĠcÄĥn": 1530,
      "XÃ£": 1531,
      "Ġxuá»ĳng": 1532,
      "Ã²n": 1533,
      "ĠvÃ´": 1534,
      "ĠÄĳÃ¡ng": 1535,
      "Ġnhu": 1536,
      "ĠÃģ": 1537,
      "ĠNgÃły": 1538,
      "ĠxÃºc": 1539,
      "tu": 1540,
      "le": 1541,
      "Ġdi": 1542,
      "ĠtÃłu": 1543,
      "ĠdÆ°á»Ľi": 1544,
      "Ġtai": 1545,
      "ĠnháºŃt": 1546,
      "ĠphÆ°á»Ŀng": 1547,
      "hoa": 1548,
      "ĠÄĳá»Ŀi": 1549,
      "Ġnhá»ı": 1550,
      "gue": 1551,
      "ĠchÆ¡i": 1552,
      "Ġrá»ĵi": 1553,
      "ĠTÃ¢y": 1554,
      "Ġrá»Ļng": 1555,
      "ĠthÃ´": 1556,
      "Ġháº¡i": 1557,
      "ĠcÆ°á»Ŀng": 1558,
      "Ġthiá»ĩn": 1559,
      "ĠmÃ¹a": 1560,
      "Ġtiá»ĩn": 1561,
      "ĠCup": 1562,
      "ĠphiÃªn": 1563,
      "Ġ22": 1564,
      "ĠtuyÃªn": 1565,
      "Ġpháº£n": 1566,
      "Ġgá»įi": 1567,
      "NG": 1568,
      "Ġá»§y": 1569,
      "©a": 1570,
      "ĠÄĳÃ´ng": 1571,
      "li": 1572,
      "Ãºt": 1573,
      "2022": 1574,
      "ĠnghÄ©a": 1575,
      "Ľm": 1576,
      "ĠthuáºŃn": 1577,
      "eague": 1578,
      "ĠÄĲÃ¢y": 1579,
      "nam": 1580,
      "ĠGD": 1581,
      "Ġlá»ħ": 1582,
      "Ã£i": 1583,
      "Ġná»¯a": 1584,
      "Ġnam": 1585,
      "ĠNgá»įc": 1586,
      ".,\"": 1587,
      "Ġká»¹": 1588,
      "uyáº¿t": 1589,
      "ĠkÃŃ": 1590,
      "ĠTÃ¢n": 1591,
      "Ġsá»Ľm": 1592,
      "ui": 1593,
      "Ġá»ķ": 1594,
      "ĠLuáºŃt": 1595,
      "ĠriÃªng": 1596,
      "ĠCN": 1597,
      "ĠvÆ°á»£t": 1598,
      "á»·": 1599,
      "Ġ100": 1600,
      "Ġká»·": 1601,
      "ĠHiá»ĩn": 1602,
      "Ġhá»įp": 1603,
      "\"\",": 1604,
      "Ġkhá»ıi": 1605,
      "Ġlá»Ļ": 1606,
      "ĠlÃ²ng": 1607,
      "05": 1608,
      "Ã¨": 1609,
      "de": 1610,
      "Ġbiá»ĩn": 1611,
      "xa": 1612,
      "ĠtoÃ¡n": 1613,
      "Ġkhá»Łi": 1614,
      "áº¯k": 1615,
      "Ġthuá»ĳc": 1616,
      "ĠQuang": 1617,
      "Ġphim": 1618,
      "ĠÄĳáº§y": 1619,
      "ĠHá»ĵ": 1620,
      "ĠcÃ¢": 1621,
      "ĠnghiÃªn": 1622,
      "Ġngoáº¡i": 1623,
      "ĠmÃ´": 1624,
      "ĠchÄĥm": 1625,
      "Ġchuyá»ĩn": 1626,
      "Ġcháº¥p": 1627,
      "Ġmáº«u": 1628,
      "ĠTá»«": 1629,
      "Ġthiáº¿u": 1630,
      "Ġnáº·ng": 1631,
      "ĠKhi": 1632,
      "Ġgiáº¥y": 1633,
      "Ġsáº¯c": 1634,
      "ĠmÃ´i": 1635,
      "ĠDo": 1636,
      "Theo": 1637,
      "ĠphÃ¹": 1638,
      "ĠMá»Ļt": 1639,
      "Ġxin": 1640,
      "ĠBÃŃ": 1641,
      "Ã³a": 1642,
      "Ġvong": 1643,
      "ĭnh": 1644,
      "iáº¿c": 1645,
      "uyen": 1646,
      "NgÃły": 1647,
      "Ġvá»£": 1648,
      "ĠPháº¡m": 1649,
      "ĠYÃªn": 1650,
      "Chá»§": 1651,
      "ĠsÃ¡u": 1652,
      "lo": 1653,
      "ter": 1654,
      "ĠbÃ©": 1655,
      "¦y": 1656,
      "¯u": 1657,
      "ĠVá»Ľi": 1658,
      "08": 1659,
      "Ġbuá»ķi": 1660,
      "Ġmong": 1661,
      "ĠÄĳá»ĵ": 1662,
      "2017": 1663,
      "Ġmáº¡i": 1664,
      "ĠnÃ´ng": 1665,
      "Ġphiáº¿u": 1666,
      "Ġ27": 1667,
      "Ġnghá»ģ": 1668,
      "ĠthÃºc": 1669,
      "Ġgiai": 1670,
      "Ġthoáº¡i": 1671,
      "Nh": 1672,
      "ĠÄĳÃło": 1673,
      "14": 1674,
      "Ã£n": 1675,
      "Ġháº¡ng": 1676,
      "ĠGiÃ¡o": 1677,
      "ĠVÅ©": 1678,
      "ĠCty": 1679,
      "03": 1680,
      "04": 1681,
      "ĠhÃ²": 1682,
      "VN": 1683,
      "Ġtá»Ļi": 1684,
      "ĠthÃŃch": 1685,
      "ĠtrÃ¬": 1686,
      "ĠMá»": 1687,
      "to": 1688,
      "Ġ28": 1689,
      "Ġká»ĭp": 1690,
      "ĠÄĳáº¹p": 1691,
      "Ġvai": 1692,
      "uyá»ĩt": 1693,
      "ing": 1694,
      "uat": 1695,
      "25": 1696,
      "ĠNhÃ": 1697,
      "ĠTo": 1698,
      "Ġchá»ĵng": 1699,
      "ĠcÃłng": 1700,
      "ĠcÃ¢y": 1701,
      "ĠNghá»ĭ": 1702,
      "ĠBÃ¡o": 1703,
      "Ġ200": 1704,
      "ĠÄĳÃªm": 1705,
      "Ġchá»īnh": 1706,
      "Ġtáº¥n": 1707,
      "Ġhá»¯u": 1708,
      "07": 1709,
      "Ġá»¦y": 1710,
      "Ġ26": 1711,
      "ĠlÄ©nh": 1712,
      "Ġsai": 1713,
      "Ġkháº³ng": 1714,
      "ĠsÆ°": 1715,
      "Ġmáº¯t": 1716,
      "24": 1717,
      "ĠthÆ°á»Łng": 1718,
      "ĠBHXH": 1719,
      "ĠHu": 1720,
      "Ġtháº©m": 1721,
      "ĠxuyÃªn": 1722,
      "ĠNháºŃt": 1723,
      "Ġtáº·ng": 1724,
      "ĠNáº¿u": 1725,
      "ĠtÃº": 1726,
      "ĠkÃª": 1727,
      "09": 1728,
      "Ġbáº£ng": 1729,
      "Ġduy": 1730,
      "Ãłm": 1731,
      "ĠbÃ¡c": 1732,
      "Ġá»ķn": 1733,
      "Ġphá»ķ": 1734,
      "ĠChá»ī": 1735,
      "uoc": 1736,
      "Ġhuáº¥n": 1737,
      "ark": 1738,
      "ĠbÆ°á»Ľc": 1739,
      "Ġchá»¯a": 1740,
      "ĠÄĳÃ¡p": 1741,
      "ĠbiÃªn": 1742,
      "ĠdÆ°á»¡ng": 1743,
      "13": 1744,
      "ĠbÃ£o": 1745,
      "Ġná»ģn": 1746,
      "Ġtho": 1747,
      "ieu": 1748,
      "it": 1749,
      "Ġdáº¡y": 1750,
      "ĠÄĳá»©ng": 1751,
      "la": 1752,
      "TT": 1753,
      "ĠphÃºt": 1754,
      "ĠkhÃ¡m": 1755,
      "Ġhiá»ĥu": 1756,
      "06": 1757,
      "ĠÄĳáº£o": 1758,
      "Ġhoa": 1759,
      "ĠthÄĥm": 1760,
      "ĠGDÄĲT": 1761,
      "ĠNhá»¯ng": 1762,
      "ha": 1763,
      "ĠkÃ©o": 1764,
      "Ġ2022": 1765,
      "ĠLinh": 1766,
      "Ġchiáº¿c": 1767,
      "Ġ29": 1768,
      "bi": 1769,
      "Ã¹i": 1770,
      "ĠÄĳÃ³n": 1771,
      "Ġtá»ĳc": 1772,
      "ĠphÃ¡": 1773,
      "uoi": 1774,
      "ir": 1775,
      "ĠBáº£o": 1776,
      "Ġtá»©c": 1777,
      "ĠBáº£n": 1778,
      "Ġcháº¡y": 1779,
      "Ġbáº§u": 1780,
      "ĠNLÄĲ": 1781,
      "©t": 1782,
      "ĠchÃ¢n": 1783,
      "ĠHÃłn": 1784,
      "Ġcáº£i": 1785,
      "Ġchá»ĭu": 1786,
      "ĠÆ°u": 1787,
      "Ġma": 1788,
      "ĠcÃ¡i": 1789,
      "Ġdá»«ng": 1790,
      "Ġtháº¥t": 1791,
      "ĠPhÃºc": 1792,
      "Qu": 1793,
      "ĠChÃŃ": 1794,
      "á»Ńa": 1795,
      "75": 1796,
      "cho": 1797,
      "ĠHÃ³a": 1798,
      "Ġná»ķi": 1799,
      "giao": 1800,
      "ĠdÃłnh": 1801,
      "Ġ09": 1802,
      "ca": 1803,
      "Ġ50": 1804,
      "Ġxáº¿p": 1805,
      "ĠCá»¥c": 1806,
      "ĠViá»ĩc": 1807,
      "ĠÄĳá»Ļc": 1808,
      "ĠchÃ³": 1809,
      "Ġngá»Ŀ": 1810,
      "Ġdáº§u": 1811,
      "tai": 1812,
      "ĠIn": 1813,
      "iá»ģm": 1814,
      "£t": 1815,
      "±a": 1816,
      "ona": 1817,
      "ĠKim": 1818,
      "áº§ng": 1819,
      "Æ°á»Ľi": 1820,
      "ro": 1821,
      "ĠnÃ³ng": 1822,
      "ĠniÃªn": 1823,
      "á»ĭch": 1824,
      "ĠgÃ¡i": 1825,
      "Ġnhiá»ĩt": 1826,
      "Ġdá»ħ": 1827,
      "ĠhÃ²a": 1828,
      "ĠHá»ĵng": 1829,
      "ĠChi": 1830,
      "ĠÃŃch": 1831,
      "ĠkhÃ¡": 1832,
      "Ġá»§ng": 1833,
      "doan": 1834,
      "ĠquÃł": 1835,
      "ĠNgÆ°á»Ŀi": 1836,
      "hÃºng": 1837,
      "01": 1838,
      "uÃ´i": 1839,
      "ĠKhÃ´ng": 1840,
      "ĠCÃ³": 1841,
      "ĠÃ¢m": 1842,
      "ĠPhÆ°Æ¡ng": 1843,
      "thi": 1844,
      "Ġninh": 1845,
      "Ġdáº¥u": 1846,
      "Ġai": 1847,
      "Ġ31": 1848,
      "Ġtáº§ng": 1849,
      "ĠvÃłi": 1850,
      "ĠlÆ°á»£t": 1851,
      "ĠThÃ´ng": 1852,
      "¬n": 1853,
      "Ġnáº±m": 1854,
      "ĠdÆ°Æ¡ng": 1855,
      "orld": 1856,
      "ĠtÆ°á»Łng": 1857,
      "Ġcháº¿t": 1858,
      "Ġsung": 1859,
      "ĠtÃŃn": 1860,
      "ĠthuÃª": 1861,
      "ĠsÃ¢u": 1862,
      "Ġbuá»Ļc": 1863,
      "TV": 1864,
      "ĠlÅ©": 1865,
      "ĠtrÃ¡nh": 1866,
      "Ġbáº£y": 1867,
      "Ġtá»·": 1868,
      "Ìĥ": 1869,
      "Ġchuyáº¿n": 1870,
      "ĠchÃ¡u": 1871,
      "ĠDá»±": 1872,
      "EA": 1873,
      "Tin": 1874,
      "ĠMai": 1875,
      "Ġháº¡": 1876,
      "su": 1877,
      "Bá»Ļ": 1878,
      "si": 1879,
      "ÂłÂł": 1880,
      "02": 1881,
      "van": 1882,
      "Ġtháº§y": 1883,
      "ĠnhÃ¬": 1884,
      "Ġthuáº¿": 1885,
      "Ġnghi": 1886,
      "ĠBÃªn": 1887,
      "ĠthÃ´n": 1888,
      "tin": 1889,
      "ĠThÆ°á»Ŀng": 1890,
      "ĠGia": 1891,
      "ĠÄĲÃ¬nh": 1892,
      "II": 1893,
      "Ġtháº£o": 1894,
      "ĠTuáº¥n": 1895,
      "ĠÄĳua": 1896,
      "Ġná»£": 1897,
      "Ġxa": 1898,
      "Ġchiáº¿m": 1899,
      "ĠTiáº¿n": 1900,
      "ti": 1901,
      "tÃ´": 1902,
      "Ġmiá»ģn": 1903,
      "áº·n": 1904,
      "ĠhÃ£": 1905,
      "Ġvui": 1906,
      "va": 1907,
      "ĠThÆ°Æ¡ng": 1908,
      "ve": 1909,
      "ĠKhÃ¡nh": 1910,
      "Ġnguyá»ĩn": 1911,
      "ĠquÃ½": 1912,
      "Ġchá»Ĺ": 1913,
      "Ġhuynh": 1914,
      "Ġnháº¡c": 1915,
      "Ġdá»ĭp": 1916,
      "ĠTÃłi": 1917,
      "Ġ2017": 1918,
      "¨o": 1919,
      "ĵn": 1920,
      "á»ķng": 1921,
      "Tháº¿": 1922,
      "ĠLÃ¢m": 1923,
      "ĠnÃªu": 1924,
      "ĠsÃ´ng": 1925,
      "ed": 1926,
      "ĠDÅ©ng": 1927,
      "Ġláº¡c": 1928,
      "ÄĲá»": 1929,
      "phap": 1930,
      "luat": 1931,
      "ĠTrÆ°á»Łng": 1932,
      "ĠÄĳá»£t": 1933,
      "ĠmÃ¡u": 1934,
      "ĠtháºŃt": 1935,
      "Ġnháº¥n": 1936,
      "COVID": 1937,
      "ĠHoa": 1938,
      "ĠchÃ¡y": 1939,
      "ĠÄĲÃło": 1940,
      "ĠngÃ´i": 1941,
      "TP": 1942,
      "Ãµi": 1943,
      "ĠÄĲáº¿n": 1944,
      "ĠTÃ´i": 1945,
      "Ġvay": 1946,
      "ĠBÃł": 1947,
      "ĠnhÃ¬n": 1948,
      "50": 1949,
      "gia": 1950,
      "ĠVÃ¬": 1951,
      "ump": 1952,
      "Ġkháº¯c": 1953,
      "Ġvá»¯ng": 1954,
      "ĠlÃ¡i": 1955,
      "ĠquÃ¡n": 1956,
      "ĠphÃ³ng": 1957,
      "ĠVá»ģ": 1958,
      "ĠCÆ¡": 1959,
      "ĠkhÃ¡n": 1960,
      "ĠtrÆ°Æ¡ng": 1961,
      "ĠnuÃ´i": 1962,
      "ĠphÃª": 1963,
      "ĠhÃº": 1964,
      "ĠlÃ¢u": 1965,
      "gioi": 1966,
      "NHH": 1967,
      "ĠÄĳÃłn": 1968,
      "ĠMa": 1969,
      "ĠÄĲá»ĳi": 1970,
      "ĠNgÃ¢n": 1971,
      "ĠPhÃ¡t": 1972,
      "ĠcáºŃp": 1973,
      "sinh": 1974,
      "AR": 1975,
      "ĠTNHH": 1976,
      "ok": 1977,
      "LV": 1978,
      "ĠGiáº£i": 1979,
      "Ġtáº¡p": 1980,
      "nguoi": 1981,
      "ĠKhu": 1982,
      "ĠNhÆ°ng": 1983,
      "ĠPark": 1984,
      "ĠÄĲá»ĥ": 1985,
      "trong": 1986,
      "Co": 1987,
      "ĠLa": 1988,
      "Ġuá»ĳng": 1989,
      "Ġmiá»ħn": 1990,
      "amp": 1991,
      "ĠsÃłng": 1992,
      "ĠhÃºt": 1993,
      "ĠgiÃłnh": 1994,
      "ĠNhiá»ģu": 1995,
      "Ġtrá»¥": 1996,
      "ĠvÅ©": 1997,
      "Ġlan": 1998,
      "Ġcam": 1999,
      "Kinh": 2000,
      "Ġkhá»ĳi": 2001,
      "Ġthiá»ĩt": 2002,
      "ĠVÄ©nh": 2003,
      "ĠViet": 2004,
      "ĠgiÃ³": 2005,
      "Ġsá»Ńa": 2006,
      "Ńa": 2007,
      "Thá»ĥ": 2008,
      "Ġtrá»Ŀi": 2009,
      "Ġ07": 2010,
      "26": 2011,
      "ly": 2012,
      "¢m": 2013,
      "os": 2014,
      "ĠWorld": 2015,
      "Ġná»ĳi": 2016,
      "Ġgáº¯n": 2017,
      "45": 2018,
      "cua": 2019,
      "Ġkiáº¿m": 2020,
      "thu": 2021,
      "ıng": 2022,
      "ĠvÃ©": 2023,
      "ĵi": 2024,
      "ĠÃĤ": 2025,
      "Ġ08": 2026,
      "Ġxanh": 2027,
      "ĠquÃª": 2028,
      "ĠnghÃ¨o": 2029,
      "ĠHÆ°ng": 2030,
      "ĠCáº£nh": 2031,
      "ĠÃ´tÃ´": 2032,
      "Ġná»Ĺ": 2033,
      "ĠlÃ¢y": 2034,
      "Ġloáº¡t": 2035,
      "ĠTrump": 2036,
      "Ġlá»±a": 2037,
      "ĠKá»³": 2038,
      "27": 2039,
      "ĠnghÃ¬n": 2040,
      "ĠcÃ¢n": 2041,
      "Ġchá»Ŀ": 2042,
      "ĠÄĳÃ´i": 2043,
      "be": 2044,
      "ot": 2045,
      "ĠÃ¡nh": 2046,
      "Ġda": 2047,
      "ĠÄĳá»įc": 2048,
      "ĠCá»¥": 2049,
      "ĠHÃ¹ng": 2050,
      "ĠchÃ³ng": 2051,
      "onal": 2052,
      "ĠÃ¡o": 2053,
      "á»Ļp": 2054,
      "ĠbÃły": 2055,
      "Ġcá»¥c": 2056,
      "CoV": 2057,
      "ĠÄĲá»ĭnh": 2058,
      "ĠdÃµi": 2059,
      "įt": 2060,
      "88": 2061,
      "nhan": 2062,
      "Ġtruy": 2063,
      "ĠÄĲoÃłn": 2064,
      "ĠÄĳá»ı": 2065,
      "ĠLeague": 2066,
      "Ġtiá»ĥu": 2067,
      "ÃŃnh": 2068,
      "ĠTháº¿": 2069,
      "bank": 2070,
      "PhÃ¡p": 2071,
      "ĠChÆ°Æ¡ng": 2072,
      "ĠMan": 2073,
      "ĠNhÃ¢n": 2074,
      "ĠÄĳau": 2075,
      "Ġtrai": 2076,
      "GiÃ¡o": 2077,
      "ĠNhÆ°": 2078,
      "nghi": 2079,
      "ĠngÄĥn": 2080,
      "ĠNÄĥm": 2081,
      "ĠÄĲiá»ĩn": 2082,
      "39": 2083,
      "ni": 2084,
      "Ġtá»ı": 2085,
      "ĳt": 2086,
      "Ġviáº¿t": 2087,
      "ĠtÃ¡i": 2088,
      "ĠBa": 2089,
      "Ġcháº·t": 2090,
      "ĠmÃłu": 2091,
      "ĠcáºŃn": 2092,
      "Vá»": 2093,
      "Ġkháº£o": 2094,
      "Ġtáº¯c": 2095,
      "kinh": 2096,
      "don": 2097,
      "duc": 2098,
      "ĠthÃ¡i": 2099,
      "ĠNghá»ĩ": 2100,
      "ver": 2101,
      "Ġsáºµ": 2102,
      "ĠBiÃªn": 2103,
      "Ġsáºµn": 2104,
      "Ġtá»Ŀ": 2105,
      "ep": 2106,
      "kho": 2107,
      "Ġcan": 2108,
      "ĠÄĳá»ĭch": 2109,
      "VÄĥn": 2110,
      "ĠkhÃ": 2111,
      "and": 2112,
      "ĠTÄ©nh": 2113,
      "ou": 2114,
      "bao": 2115,
      "ĠTiÃªn": 2116,
      "ĠÄĲáº·c": 2117,
      "Ġxá»": 2118,
      "79": 2119,
      "á»ĳng": 2120,
      "Thá»Ŀi": 2121,
      "ĠthÃ¡c": 2122,
      "ĠnhÃ¡nh": 2123,
      "Kh": 2124,
      "ĠPhi": 2125,
      "ĠmÃ£": 2126,
      "Æ°á»¡ng": 2127,
      "Ġphá»©c": 2128,
      "Ġmá»ĳi": 2129,
      "Háº£i": 2130,
      "29": 2131,
      "GiÃ¡": 2132,
      "ĠLai": 2133,
      "ARS": 2134,
      "59": 2135,
      "Ġkháº©n": 2136,
      "á»ĩ": 2137,
      "ĠrÃºt": 2138,
      "Ġbá»©c": 2139,
      "á»©c": 2140,
      "Tá»ķng": 2141,
      "ĠNgh": 2142,
      "ĠThÆ¡": 2143,
      "ĠDN": 2144,
      "Ġáº¥y": 2145,
      "ĠPV": 2146,
      "ĠdÆ°": 2147,
      "ĠCÅ©ng": 2148,
      "Æ¯": 2149,
      "Ġquay": 2150,
      "Ãºi": 2151,
      "28": 2152,
      "rus": 2153,
      "á»³nh": 2154,
      "ĠtÃºy": 2155,
      "Ġ06": 2156,
      "Ġtháº³ng": 2157,
      "56": 2158,
      "Ġnháº¹": 2159,
      "ĠtÃ¹": 2160,
      "eu": 2161,
      "Ġlá»Ńa": 2162,
      "vi": 2163,
      "Ã³n": 2164,
      "ĠhÆ°u": 2165,
      "onald": 2166,
      "ĠtÃ´": 2167,
      "Ġbinh": 2168,
      "ĠrÃ¡c": 2169,
      "TS": 2170,
      "quoc": 2171,
      "ĠHÆ°Æ¡ng": 2172,
      "ĠNhiá»ĩt": 2173,
      "ĠVN": 2174,
      "NgÆ°á»Ŀi": 2175,
      "Ġcháº¯c": 2176,
      "Ġthá»Ń": 2177,
      "ĠThuáºŃn": 2178,
      "ĠlÃ£i": 2179,
      "iáº¿p": 2180,
      "Ġsáº¯p": 2181,
      "ĠsÃ³c": 2182,
      "Ġthá»§y": 2183,
      "ĠVÃ¢n": 2184,
      "ĠthiÃªn": 2185,
      "ĠTáºŃp": 2186,
      "uá»ĳt": 2187,
      "ĠNgoáº¡i": 2188,
      "dau": 2189,
      "Ġná»Ļp": 2190,
      "%.": 2191,
      "Ġnáº¯ng": 2192,
      "ew": 2193,
      "Ġvirus": 2194,
      "Ġrá»«ng": 2195,
      "tri": 2196,
      "ĠLi": 2197,
      "ĠHÄĲ": 2198,
      ");": 2199,
      "Ġkhuyáº¿n": 2200,
      "Ġnon": 2201,
      "ĠkhÃ³a": 2202,
      "ĠKinh": 2203,
      "ĠHoÃłn": 2204,
      "ĠKhoa": 2205,
      "ĠÄĳá»Ļt": 2206,
      "one": 2207,
      "Ġchá»§ng": 2208,
      "Thanh": 2209,
      "Ġnghe": 2210,
      "Ġbáº¡c": 2211,
      "Ġthá»«a": 2212,
      "FF": 2213,
      "Ġmay": 2214,
      "Ġliá»ĩt": 2215,
      "ĠÆ°á»Ľc": 2216,
      "Ġ40": 2217,
      "35": 2218,
      "Ġchá»©a": 2219,
      "ĠÄĳÃŃ": 2220,
      "Ġnáº¯m": 2221,
      "36": 2222,
      "pp": 2223,
      "ĠphÃºc": 2224,
      "hÃºc": 2225,
      "¥t": 2226,
      "ĠphÃ³": 2227,
      "ace": 2228,
      "ĠÃĤu": 2229,
      "ĠxÄĥng": 2230,
      "ĠdÃ´ng": 2231,
      "ri": 2232,
      "vid": 2233,
      "ĠBÃ¹i": 2234,
      "ĠQuáº£n": 2235,
      "ĠThá»Ŀi": 2236,
      "ĠQuyáº¿t": 2237,
      "Ġtháº£i": 2238,
      "Trong": 2239,
      "ĠViá»ĩn": 2240,
      "ĠhoÃ¡": 2241,
      "Ġtáº§m": 2242,
      "ak": 2243,
      "ĠDuy": 2244,
      "ĠsÃ³ng": 2245,
      "ĠTá»īnh": 2246,
      "ĠVinh": 2247,
      "Ġtháº»": 2248,
      "ĠkhoÃ¡n": 2249,
      "Ġsuy": 2250,
      "ĠÄĲáº¯k": 2251,
      "Ġtráº£i": 2252,
      "truong": 2253,
      "ĠlÆ°á»£c": 2254,
      "ĠCÃ²n": 2255,
      "ĠPhÃ¡p": 2256,
      "ÌĤÌģ": 2257,
      "thoi": 2258,
      "ĠQuá»¹": 2259,
      "ĠtÃ²a": 2260,
      "Ġquanh": 2261,
      "ĠÂł": 2262,
      "áº¹n": 2263,
      "48": 2264,
      "giai": 2265,
      "Ġniá»ĩm": 2266,
      "Ġbá»ĳi": 2267,
      "com": 2268,
      "eal": 2269,
      "ĠtrÃło": 2270,
      "ĠdÃ²ng": 2271,
      "noi": 2272,
      "ba": 2273,
      "Ãºng": 2274,
      "Ġdá»¯": 2275,
      "ĠHiá»ĩp": 2276,
      "ĠHLV": 2277,
      "ĠTrá»ĭ": 2278,
      "viet": 2279,
      "Ġmá»«ng": 2280,
      "Ġchá»£": 2281,
      "Å©i": 2282,
      "oo": 2283,
      "ĠThá»©": 2284,
      "Ġchá»ĳt": 2285,
      "ĠdÃ¢y": 2286,
      "ĠKho": 2287,
      "km": 2288,
      "Ġnhá»Ŀ": 2289,
      "Ġá»ŀ": 2290,
      "37": 2291,
      "á»Ĺi": 2292,
      "Ġcháº¥m": 2293,
      "ĠÄĳÃŃch": 2294,
      "so": 2295,
      "Ġsáº¯t": 2296,
      "Ġthua": 2297,
      "xe": 2298,
      "ĠSARS": 2299,
      "ĠGiÃ¡": 2300,
      "58": 2301,
      "Ġthá»¥": 2302,
      "Ġsáº¡ch": 2303,
      "ĠcÅ©": 2304,
      "ĠPhan": 2305,
      "ain": 2306,
      "ĠrÃł": 2307,
      "ky": 2308,
      "ĠÄĲá»Ļ": 2309,
      "ĠkÃŃch": 2310,
      "doi": 2311,
      "99": 2312,
      "SN": 2313,
      "Ġthá»ıa": 2314,
      "ĠAS": 2315,
      "alia": 2316,
      "dan": 2317,
      "ĠNha": 2318,
      "TÃ´i": 2319,
      "CN": 2320,
      "Ġmá»Ļ": 2321,
      "ĠNai": 2322,
      "ĠCáº§n": 2323,
      "38": 2324,
      "ĠtháºŃm": 2325,
      "ĠHuy": 2326,
      "Ġcáº¯t": 2327,
      "ĠTrang": 2328,
      "ĠCÆ°á»Ŀng": 2329,
      "Ġnháº¯c": 2330,
      "ĠSá»ĳ": 2331,
      "bat": 2332,
      "YT": 2333,
      "ran": 2334,
      "bong": 2335,
      "vu": 2336,
      "ĠQuÃ¢n": 2337,
      "Ġláº¡nh": 2338,
      "ĠZ": 2339,
      "76": 2340,
      "Ġtá»Ļc": 2341,
      "46": 2342,
      "ĠsiÃªu": 2343,
      "tam": 2344,
      "CP": 2345,
      "ĠCao": 2346,
      "Thá»§": 2347,
      "Ġdáº¡ng": 2348,
      "ĠChÃºng": 2349,
      "ton": 2350,
      "ĠDonald": 2351,
      "CS": 2352,
      "ĠPhá»": 2353,
      "ta": 2354,
      "dr": 2355,
      "Ġáº": 2356,
      "ĠKiá»ĥm": 2357,
      "ĠLÃ½": 2358,
      "Ġchá»Ł": 2359,
      "Ġáº¥n": 2360,
      "Ġcáº¥m": 2361,
      "ĠcháºŃm": 2362,
      "£n": 2363,
      "ĠTháº¯ng": 2364,
      "ĠThiÃªn": 2365,
      "Ġpha": 2366,
      "ĠtrÄĥm": 2367,
      "ke": 2368,
      "ĠHai": 2369,
      "Ġlá»ĩnh": 2370,
      "Ġsuá»ĳt": 2371,
      "ĠHuáº¿": 2372,
      "Ġlá»Ĺi": 2373,
      "Ġgiáº£ng": 2374,
      "Ġcoi": 2375,
      "á»ĵng": 2376,
      "Ġcháº·n": 2377,
      "ĠPhong": 2378,
      "Ġdá»©t": 2379,
      "yr": 2380,
      "Ġquen": 2381,
      "ĠMo": 2382,
      "ĠrÆ¡i": 2383,
      "hoc": 2384,
      "tro": 2385,
      "san": 2386,
      "ĠUni": 2387,
      "ĠNÃ´ng": 2388,
      "UY": 2389,
      "Ġduyá»ĩt": 2390,
      "ĠAr": 2391,
      "Ġgiá»ĳng": 2392,
      "Ġthiá»ĥu": 2393,
      "Ġngá»¯": 2394,
      "ĠVÃłng": 2395,
      "Ġtá»ıa": 2396,
      "ĠngÅ©": 2397,
      "ĠgiáºŃt": 2398,
      "VC": 2399,
      "Ġtri": 2400,
      "ĠHang": 2401,
      "Ġgá»ĳc": 2402,
      "tinh": 2403,
      "Ġnhá»Ľ": 2404,
      "ted": 2405,
      "á»¯u": 2406,
      "ĠcÃº": 2407,
      "Ġláº¯ng": 2408,
      "Ġmáº·c": 2409,
      "ĠhÃ´n": 2410,
      "40": 2411,
      "ĠÄĲÆ°á»£c": 2412,
      "Ġ60": 2413,
      "Ġquá»¹": 2414,
      "ĠNgay": 2415,
      "Tá»": 2416,
      "Ġháº¡t": 2417,
      "Ġbá»ĵi": 2418,
      ",['": 2419,
      "ĠDu": 2420,
      "Ġáº¥m": 2421,
      "Ġngáº¡i": 2422,
      "ĠÄĳÆ°Æ¡ng": 2423,
      "ĠHÃłng": 2424,
      "ĠTrá»įng": 2425,
      "ion": 2426,
      "Ġlá»¥c": 2427,
      "khong": 2428,
      "ĠgiÃ¡c": 2429,
      "ĠkÃªu": 2430,
      "Ġháº¥p": 2431,
      "ĠtáºŃn": 2432,
      "Ġsong": 2433,
      "ĠLÄĲLÄĲVN": 2434,
      "ity": 2435,
      "vien": 2436,
      "Ġlai": 2437,
      "ĠnÃºi": 2438,
      "mua": 2439,
      "ĠpháºŃn": 2440,
      "khi": 2441,
      "49": 2442,
      "Ġ2016": 2443,
      "Ġtrá»ĵng": 2444,
      "ĠrÃło": 2445,
      "Ġcáº§m": 2446,
      "ĠThá»§y": 2447,
      "ĠVÃł": 2448,
      "Ġcha": 2449,
      "Ġ01": 2450,
      "ĠÄĲa": 2451,
      "57": 2452,
      "Ġ199": 2453,
      "seo": 2454,
      "Ġdáº§n": 2455,
      "²i": 2456,
      "Ġco": 2457,
      "po": 2458,
      "du": 2459,
      "ĠÄĳÃ¡n": 2460,
      "Ġ500": 2461,
      "League": 2462,
      "ames": 2463,
      "Ġcá»±": 2464,
      "Ġmáº§m": 2465,
      "se": 2466,
      "est": 2467,
      "Ġtá»ĵn": 2468,
      "ĠhÃ¡t": 2469,
      "Ġtráº¥n": 2470,
      "Ġbáº¡i": 2471,
      "Ġgáº¯ng": 2472,
      "ĠKáº¿t": 2473,
      "Ġngá»«ng": 2474,
      "ĠbáºŃt": 2475,
      "Ġngáº¯n": 2476,
      "ĠThá»±c": 2477,
      "ĠtrÃºng": 2478,
      "Ġf": 2479,
      "Ġliá»ģu": 2480,
      "ĠHá»įc": 2481,
      "Ġlá»£n": 2482,
      "Trung": 2483,
      "Ġná»ķ": 2484,
      "ĠÄĳÃ¢u": 2485,
      "Ġchá»©": 2486,
      "ĠXÃ¢y": 2487,
      "ĠChung": 2488,
      "yria": 2489,
      "ĠPhÆ°á»Ľc": 2490,
      "ĭa": 2491,
      "Ġxu": 2492,
      "ĠHáºŃu": 2493,
      "Ġthai": 2494,
      "55": 2495,
      "ĠGiao": 2496,
      "ĠLÆ°Æ¡ng": 2497,
      "tan": 2498,
      "Ġtim": 2499,
      "Ġcáº¥u": 2500,
      "ce": 2501,
      "Ġtá»ĩ": 2502,
      "tá»": 2503,
      "Ġcháº¯n": 2504,
      "Sau": 2505,
      "ays": 2506,
      "ack": 2507,
      "book": 2508,
      "ĠTriá»ģu": 2509,
      "ĠÄĳá»¡": 2510,
      "Ġsá»ķ": 2511,
      "ĠQua": 2512,
      "ĠCNLÄĲ": 2513,
      "Ġtháº§u": 2514,
      "Ġniá»ģm": 2515,
      "ĠthoÃ¡t": 2516,
      "ĠÄĳu": 2517,
      "ĠgÃ³i": 2518,
      "ĠkhÃ¡ng": 2519,
      "thanh": 2520,
      "Ġtuy": 2521,
      "ĠĠĠĠĠĠĠĠ": 2522,
      "re": 2523,
      "ĠLáº¯k": 2524,
      "ÄĲáº¡i": 2525,
      "á»ĳn": 2526,
      "ĠUnited": 2527,
      "Ġthá»ĭt": 2528,
      "34": 2529,
      "há»§ng": 2530,
      "ĠcÆ¡n": 2531,
      "78": 2532,
      "ĠLÃło": 2533,
      "lÆ°á»£ng": 2534,
      "Ġkhá»ķ": 2535,
      "ĠHá»¯u": 2536,
      "ĠTÆ°": 2537,
      "Ġhy": 2538,
      "ĠCÃ¹ng": 2539,
      "Ġva": 2540,
      "ĠÄĳáº£ng": 2541,
      "ĠcÃ¡nh": 2542,
      "ĠmÅ©i": 2543,
      "acebook": 2544,
      "Ġcháº¥n": 2545,
      "ĠJo": 2546,
      "Ġchá»¥c": 2547,
      "Dá»±": 2548,
      "tien": 2549,
      "nha": 2550,
      "Chá»": 2551,
      "Ġtráº¯ng": 2552,
      "ĠÄĳoáº¡t": 2553,
      "chi": 2554,
      "ĠÄĲá»Ļi": 2555,
      "ĠmáºŃt": 2556,
      "ĠkhÃ´": 2557,
      "ĠgiÃ£n": 2558,
      "Bá»": 2559,
      "lam": 2560,
      "moi": 2561,
      "Ä©a": 2562,
      "ĠThá»į": 2563,
      "ĠVá»¥": 2564,
      "ĠÄĳoÃ¡n": 2565,
      "Ġcháº½": 2566,
      "Ġmá»Ŀi": 2567,
      "ut": 2568,
      "Ġxung": 2569,
      "EAN": 2570,
      "iáº¿ng": 2571,
      "Ġmáº½": 2572,
      "ĠÆ¡n": 2573,
      "ĠlÆ°á»Ľi": 2574,
      "kg": 2575,
      "ĠbÃło": 2576,
      "ĠhÃ£ng": 2577,
      "ĠÄĲÃ³": 2578,
      "ma": 2579,
      "he": 2580,
      "Quáº£ng": 2581,
      "ĠmÃłn": 2582,
      "ĠlÃ¡": 2583,
      "ĠSa": 2584,
      "dung": 2585,
      "ĠBN": 2586,
      "Ġtuyá»ĩt": 2587,
      "ĠhÃłi": 2588,
      "con": 2589,
      "Ġkhiá»ĥn": 2590,
      "Ġngá»§": 2591,
      "ĠthÃ¡ch": 2592,
      "Ġkhen": 2593,
      "hang": 2594,
      "Ġngá»ĵi": 2595,
      "ĠÄĳá»īnh": 2596,
      "Ġbá»ģn": 2597,
      "Ġgá»¡": 2598,
      "ĠBar": 2599,
      "ĠBHYT": 2600,
      "Ġká»ĭch": 2601,
      "Ġla": 2602,
      "ĠkhÃºc": 2603,
      "ent": 2604,
      "can": 2605,
      "Ġ198": 2606,
      "ĠkÃ¨": 2607,
      "ĠÄĳáº³ng": 2608,
      "Ġgáº¡o": 2609,
      "TPHCM": 2610,
      "Ġxáº¥u": 2611,
      "ĠbÃ¡nh": 2612,
      "Ã©p": 2613,
      "ĠngÆ°á»£c": 2614,
      "ĠkÃ©m": 2615,
      "ĠtÃ´n": 2616,
      "ki": 2617,
      "Ġhuá»ĳng": 2618,
      "Ġtrá»į": 2619,
      "Ġcháº¡m": 2620,
      "Ã£y": 2621,
      "Ġhuyáº¿t": 2622,
      "ĠkÃªnh": 2623,
      "ĠQuy": 2624,
      "įa": 2625,
      "Ġo": 2626,
      "á»Ļn": 2627,
      "ĠDÃ¹": 2628,
      "Ľt": 2629,
      "duong": 2630,
      "Ġlá»ĳi": 2631,
      "SG": 2632,
      "TK": 2633,
      "Ġsá»ĳt": 2634,
      "Ġváº¿t": 2635,
      "ĠtráºŃt": 2636,
      "SÃ¡ng": 2637,
      "HCS": 2638,
      "Ġliá»ģn": 2639,
      "47": 2640,
      "ĠCity": 2641,
      "ĠsÃłn": 2642,
      "Ġkhuáº©n": 2643,
      "dai": 2644,
      "covid": 2645,
      "ĠLe": 2646,
      "ĠHá»£p": 2647,
      "tra": 2648,
      "ines": 2649,
      "Ġchiáº¿u": 2650,
      "Ban": 2651,
      "ĠMal": 2652,
      "Ġ02": 2653,
      "Ġtráº¡m": 2654,
      "ĠNgÃ´": 2655,
      "ĠÄĲá»Ĺ": 2656,
      "ĠSyria": 2657,
      "line": 2658,
      "ĠNew": 2659,
      "Ġháº§u": 2660,
      "ĠSá»±": 2661,
      "ĠÄĳÃłm": 2662,
      "ĠTiá»ģn": 2663,
      "dinh": 2664,
      "ĠÄĲáº§u": 2665,
      "áºŃc": 2666,
      "ĠASEAN": 2667,
      "ĠngáºŃp": 2668,
      "Ġhiá»ĩp": 2669,
      "ĠMáº¡nh": 2670,
      "Ho": 2671,
      "Báº£o": 2672,
      "ĠTrÃªn": 2673,
      "Ġngo": 2674,
      "¤n": 2675,
      "500": 2676,
      "Ġsá»©": 2677,
      "Ġtrá»¯": 2678,
      "ink": 2679,
      "aysia": 2680,
      "Ġquáº§n": 2681,
      "ĠBl": 2682,
      "ĠXÃ£": 2683,
      "ard": 2684,
      "ĠGÃ²n": 2685,
      "Ġ70": 2686,
      "ÃĶng": 2687,
      "ĠCáº§u": 2688,
      "esia": 2689,
      "Ġtrá»«": 2690,
      "ĠMar": 2691,
      "ĠbáºŃc": 2692,
      "Ã³t": 2693,
      "ĠÄĳen": 2694,
      "Nghá»": 2695,
      "Ġhiáº¿n": 2696,
      "ĠgiÃłu": 2697,
      "Ġ300": 2698,
      "ĠlÃ¢m": 2699,
      "Ġ36": 2700,
      "33": 2701,
      "ĠVÆ°Æ¡ng": 2702,
      "ĠphÃ¡n": 2703,
      "Ġtáº¥m": 2704,
      "Ġgiáº£n": 2705,
      "ga": 2706,
      "donesia": 2707,
      "VCLÄĲ": 2708,
      "ĠÄĳai": 2709,
      "ĠSÃłi": 2710,
      "rain": 2711,
      "%,": 2712,
      "ĠviÃªm": 2713,
      "cu": 2714,
      "Ġngá»«a": 2715,
      "Ġháº£i": 2716,
      "Ġro": 2717,
      "ĠmÃ³n": 2718,
      "Ġrá»Ŀi": 2719,
      "ĠThÃ": 2720,
      "ĠLá»Ļc": 2721,
      "ĠToÃłn": 2722,
      "ĠVin": 2723,
      "thong": 2724,
      "Ġbáº¯c": 2725,
      "Viá»ĩt": 2726,
      "á»Ļm": 2727,
      "ĠCÄĲCS": 2728,
      "Ġlinh": 2729,
      "duoc": 2730,
      "voi": 2731,
      "§y": 2732,
      "CÃ¡c": 2733,
      "chu": 2734,
      "ore": 2735,
      "Ġháº¡nh": 2736,
      "ĠÄĳe": 2737,
      "ĠhÃ¨": 2738,
      "we": 2739,
      "Ġphi": 2740,
      "Ġgiá»ıi": 2741,
      "ĠtÃºc": 2742,
      "ĠTuyÃªn": 2743,
      "ÄĲÃł": 2744,
      "66": 2745,
      "Ġ+": 2746,
      "son": 2747,
      "Ġmai": 2748,
      "Ġ90": 2749,
      "Ġsá»¯a": 2750,
      "Dá»ĭch": 2751,
      "Nhá»¯ng": 2752,
      "Ġu": 2753,
      "Chiá»ģu": 2754,
      "ions": 2755,
      "ĠVÃµ": 2756,
      "ĠhÃ¢m": 2757,
      "ĠCá»ķ": 2758,
      "Ġrá»§": 2759,
      "ĠbÃ£i": 2760,
      "thao": 2761,
      "ĠLo": 2762,
      "ĠkhÃŃch": 2763,
      "Ġthiá»ĩu": 2764,
      "Ġmáº¡ch": 2765,
      "ģm": 2766,
      "ChÃºng": 2767,
      "Ġ35": 2768,
      "Ġcá»±u": 2769,
      "ĠhÆ°Æ¡ng": 2770,
      "qua": 2771,
      "ĠhÆ¡i": 2772,
      "ĠrÃłng": 2773,
      "ĠchÃºc": 2774,
      "Ġdá»±a": 2775,
      "ĠGiáº¥y": 2776,
      "Lá»": 2777,
      "ĠtháºŃn": 2778,
      "Ġháº¹n": 2779,
      "ngÃły": 2780,
      "ff": 2781,
      "sea": 2782,
      "44": 2783,
      "Ã³i": 2784,
      "ĠbÃ¹ng": 2785,
      "xi": 2786,
      "Ġa": 2787,
      "Ġsáº¡n": 2788,
      "mar": 2789,
      "Ġkiá»ĩm": 2790,
      "ngÆ°á»Ŀi": 2791,
      "ĠTHCS": 2792,
      "Ġ03": 2793,
      "Ġ2015": 2794,
      "Ġthá»Ł": 2795,
      "89": 2796,
      "Ġlá»Ł": 2797,
      "ĠKiáº¿m": 2798,
      "ĠCNVCLÄĲ": 2799,
      "Ġbang": 2800,
      "krain": 2801,
      "ĠTÃ¹ng": 2802,
      "Ġkim": 2803,
      "ĠbÄĥng": 2804,
      "ĠCP": 2805,
      "Ġru": 2806,
      "ĠtáºŃt": 2807,
      "tang": 2808,
      "Ġváº»": 2809,
      "Ġpháº¥n": 2810,
      "Ġláº½": 2811,
      "ĠngÃ´n": 2812,
      "orona": 2813,
      "TVT": 2814,
      "ĠhÃ£y": 2815,
      "Ġquáº£ng": 2816,
      "ĠmÃ¢y": 2817,
      "ge": 2818,
      "Ġkhá»§ng": 2819,
      "lai": 2820,
      "Ġtiá»ģm": 2821,
      "uro": 2822,
      "ĠniÃªm": 2823,
      "Báº¡n": 2824,
      "ĠÄĳÃ²i": 2825,
      "Ġtáº¿t": 2826,
      "ĠmÃ¡i": 2827,
      "Ġung": 2828,
      "CC": 2829,
      "sa": 2830,
      "ĠThÃ¡ng": 2831,
      "Ġcu": 2832,
      "Ġxong": 2833,
      "phong": 2834,
      "ampions": 2835,
      "Ġáº¤n": 2836,
      "Nguyá»ħn": 2837,
      "ĠtÃ¡": 2838,
      "âĢľ": 2839,
      "ĠSTK": 2840,
      "ĠGames": 2841,
      "ÃĬ": 2842,
      "54": 2843,
      "drid": 2844,
      "ĠHá»į": 2845,
      "ĠTrÆ°Æ¡ng": 2846,
      "ĠmÆ°u": 2847,
      "31": 2848,
      "áºł": 2849,
      "Ġhá»§y": 2850,
      "86": 2851,
      "Ġvs": 2852,
      "ĠXII": 2853,
      "Ġyáº¿t": 2854,
      "ĠMalaysia": 2855,
      "Ġin": 2856,
      "ort": 2857,
      "ĠNÆ°á»Ľc": 2858,
      "hai": 2859,
      "ov": 2860,
      "Ġgáº¥p": 2861,
      "ĠÄĲáº·ng": 2862,
      "Ġtá»¥": 2863,
      "ĠTrÃł": 2864,
      "Ġchá»¯": 2865,
      "Ġgh": 2866,
      "ĠAl": 2867,
      "ĠÄĳá»£i": 2868,
      "ĠÄĲÆ°á»Ŀng": 2869,
      "ĠtrÃ¹ng": 2870,
      "ĠTiá»ĥu": 2871,
      "áº¿p": 2872,
      "ustr": 2873,
      "Ġbá»Ŀ": 2874,
      "ĠNháº¥t": 2875,
      "ĠyÃªn": 2876,
      "ĠPhÆ°á»£ng": 2877,
      "Ġ05": 2878,
      "mp": 2879,
      "Æ°á»Ľp": 2880,
      "ĠtrÃŃch": 2881,
      "41": 2882,
      "ber": 2883,
      "ĠlÃŃ": 2884,
      "Ġrau": 2885,
      "ĠchÃło": 2886,
      "quan": 2887,
      "ĠMáº·t": 2888,
      "trung": 2889,
      "nhat": 2890,
      "ĠÄĲH": 2891,
      "phi": 2892,
      "ĠBá»Łi": 2893,
      "ĠnhÆ°á»£ng": 2894,
      "Ġbá»¯a": 2895,
      "Æ°Æ¡i": 2896,
      "ĠIndonesia": 2897,
      "Ġsá»£": 2898,
      "Má»¹": 2899,
      "ĠGiá»": 2900,
      "Ġná»Ńa": 2901,
      "Ġxo": 2902,
      "ĠBáº¡ch": 2903,
      "man": 2904,
      "Ġvinh": 2905,
      "Ãºa": 2906,
      "Ġdao": 2907,
      "ĩt": 2908,
      "ĠthÃ¡o": 2909,
      "ĠgÆ°Æ¡ng": 2910,
      "nÄĥm": 2911,
      "77": 2912,
      "Ġthuyá»ģn": 2913,
      "TH": 2914,
      "ĠKiÃªn": 2915,
      "ĠthÃ´i": 2916,
      "BÃ¡o": 2917,
      "tuyen": 2918,
      "ester": 2919,
      "Ġlá»įc": 2920,
      "¥p": 2921,
      "Ġ80": 2922,
      "GS": 2923,
      "ĠThÆ°á»£ng": 2924,
      "ĠkÃ¨m": 2925,
      "Ġcáº·p": 2926,
      "ĠTÃ¢m": 2927,
      "ĠCon": 2928,
      "ĠToÃ¡n": 2929,
      "elsea": 2930,
      "ĠCá»Ļng": 2931,
      "ĠTR": 2932,
      "Ġgiam": 2933,
      "ĠlÃłng": 2934,
      "ĠcÄĥng": 2935,
      "ier": 2936,
      "sau": 2937,
      "ngay": 2938,
      "essi": 2939,
      "ĠdÃłng": 2940,
      "ĠGTVT": 2941,
      "kraina": 2942,
      "ĠÄĳÃ¨": 2943,
      "Ġngang": 2944,
      "ĠÄĳÃ£i": 2945,
      "ĠthÆ¡": 2946,
      "ĠÄĳÃ¡m": 2947,
      "ĠDÃ¢n": 2948,
      "ĠkÃŃnh": 2949,
      "sen": 2950,
      "Ġkháº¯p": 2951,
      "ĠTÃłu": 2952,
      "á»Ńu": 2953,
      "ĠSp": 2954,
      "Æ°á»Ŀn": 2955,
      "Äĳá»": 2956,
      "ĠcÃł": 2957,
      "rem": 2958,
      "HO": 2959,
      "ÃĤ": 2960,
      "iden": 2961,
      "cm": 2962,
      "á»į": 2963,
      "ĠÂłĠÂł": 2964,
      "ĠNghÄ©a": 2965,
      "ĠlÃ´": 2966,
      "ĠÄĲiá»ĥm": 2967,
      "96": 2968,
      "doc": 2969,
      "dich": 2970,
      "ĠsÃºng": 2971,
      "thÃ¡ng": 2972,
      "gh": 2973,
      "chia": 2974,
      "ĠtÃ¢y": 2975,
      "ĠÄĳá»Ľi": 2976,
      "ĠxÃ¢m": 2977,
      "ĠQuá»³nh": 2978,
      "Ã£nh": 2979,
      "Ġláº¯p": 2980,
      "ustralia": 2981,
      "ĠâĢ¢": 2982,
      "Æ°á»£u": 2983,
      "ĠChá»ĭ": 2984,
      "online": 2985,
      "lan": 2986,
      "ĠTáº¥m": 2987,
      "ĠthÆ°á»£ng": 2988,
      "ern": 2989,
      "den": 2990,
      "á»ĳt": 2991,
      "quy": 2992,
      "LÄĲLÄĲ": 2993,
      "ĠBáº±ng": 2994,
      "ĠFacebook": 2995,
      "32": 2996,
      "ĠÄĲT": 2997,
      "Ġ04": 2998,
      "ĠTS": 2999,
      "ĠTÃŃnh": 3000,
      "Ġrá»§i": 3001,
      "ĠÃ©p": 3002,
      "LB": 3003,
      "nang": 3004,
      "Sá»©c": 3005,
      "ĠChiáº¿n": 3006,
      "ĠHáº¡": 3007,
      "ĠÄĳÃłi": 3008,
      "ĠKáº¿": 3009,
      "rab": 3010,
      "ĠReal": 3011,
      "Ġhá»ıng": 3012,
      "ĠHoÃ¡": 3013,
      "Ġláº«n": 3014,
      "?\",\"": 3015,
      "khÃ´ng": 3016,
      "ĠXem": 3017,
      "AS": 3018,
      "Ġláº»": 3019,
      "?,\"": 3020,
      "pool": 3021,
      "ĠTruyá»ģn": 3022,
      "Ġtang": 3023,
      "ĠTiáº¿p": 3024,
      "ĠMy": 3025,
      "onaldo": 3026,
      "nhung": 3027,
      "cao": 3028,
      "Ġ,": 3029,
      "Bá»ĩnh": 3030,
      "suc": 3031,
      "ĠTrao": 3032,
      "dien": 3033,
      "verpool": 3034,
      ").\",\"": 3035,
      "phat": 3036,
      "ĠngÆ°á»¡ng": 3037,
      "binh": 3038,
      "Ġmáº¡c": 3039,
      "ĠbÃŃ": 3040,
      "Ġtrá»ĳn": 3041,
      "ĠMadrid": 3042,
      "ĠNgÃ£i": 3043,
      "combank": 3044,
      "Ġchuá»Ĺi": 3045,
      "huyá»ĩn": 3046,
      "ÌĽÌ£": 3047,
      "ĠbÃ¹": 3048,
      "ail": 3049,
      "Má»Ļt": 3050,
      "Tuyá»ĥn": 3051,
      "tie": 3052,
      "¥y": 3053,
      "ĠTáº¥t": 3054,
      "ĠhÃło": 3055,
      "ĠHa": 3056,
      "ĠCÃ´": 3057,
      "Ġlá»«a": 3058,
      "ĠHÄĲND": 3059,
      "ĠCÃ¡ch": 3060,
      "Ġnháº¯n": 3061,
      "Ġthá»ķ": 3062,
      "Ġláº¡": 3063,
      "ÄĲiá»ĥm": 3064,
      "ĠÄĳeo": 3065,
      "Ġrá»Ńa": 3066,
      "Ġáº©m": 3067,
      "ĠThe": 3068,
      "2016": 3069,
      "ingap": 3070,
      "ĠÄĲinh": 3071,
      "ingapore": 3072,
      "Ġgá»Ĺ": 3073,
      "ĠbÃ¨": 3074,
      "300": 3075,
      "ĠSEA": 3076,
      "Do": 3077,
      "ĠChampions": 3078,
      "Ġbáº¿n": 3079,
      "ĠrÆ°á»£u": 3080,
      "KhÃ´ng": 3081,
      "ĠtháºŃp": 3082,
      "Ã´m": 3083,
      "ÌĨ": 3084,
      "Ġ45": 3085,
      "Ã£ng": 3086,
      "Ġkhung": 3087,
      "Táº¡i": 3088,
      "ĠSo": 3089,
      "LiÃªn": 3090,
      "cac": 3091,
      "ĠThá»«a": 3092,
      "lu": 3093,
      "Ġonline": 3094,
      "Ġsáº¡t": 3095,
      "ĠtÆ°Æ¡i": 3096,
      "how": 3097,
      "TrÆ°á»Ľc": 3098,
      "ĠMáº·c": 3099,
      "Ġtáº£ng": 3100,
      "ich": 3101,
      "ĠÄĳem": 3102,
      "Ġmu": 3103,
      "Ġdinh": 3104,
      "thá»": 3105,
      "Ġga": 3106,
      "ĠHoÃł": 3107,
      "ik": 3108,
      "khoe": 3109,
      "ĠmÆ¡": 3110,
      "ĠHáº±ng": 3111,
      "Ġcáº£ng": 3112,
      "ĠCo": 3113,
      "ĠlÃłn": 3114,
      "ĠLiÃªu": 3115,
      "ĠMau": 3116,
      "Cá»": 3117,
      "ĠTu": 3118,
      "ĠtuÃ¢n": 3119,
      "ÌĤÌĢ": 3120,
      "ªnh": 3121,
      "43": 3122,
      "Ġtrá»Ļm": 3123,
      "ĠTháº£o": 3124,
      "Ġuy": 3125,
      "tuong": 3126,
      "Ġbuá»ĵn": 3127,
      "ĠHoÃłi": 3128,
      "lip": 3129,
      "Ġcháº³ng": 3130,
      "FA": 3131,
      "ĠVáºŃn": 3132,
      "Ġmá»ģm": 3133,
      "vá»": 3134,
      "100": 3135,
      "Ġháº±ng": 3136,
      "¹a": 3137,
      "hon": 3138,
      "ĠBáº¡c": 3139,
      "ĠÄĳá»©c": 3140,
      "âĢĻ": 3141,
      "ĠCorona": 3142,
      "ul": 3143,
      "hÃ¢n": 3144,
      "ĠbÃ³": 3145,
      "ĠlÃłnh": 3146,
      "ĠIran": 3147,
      "ĠSinh": 3148,
      "ÃŃch": 3149,
      "chá»": 3150,
      "thuc": 3151,
      "Ġtá»ķn": 3152,
      "98": 3153,
      "ne": 3154,
      "ĠbuÃ´n": 3155,
      "ÃĬN": 3156,
      "Há»įc": 3157,
      "Ġvá»¡": 3158,
      "ĠNG": 3159,
      "Ġbáº¡ch": 3160,
      "Ġáº©n": 3161,
      "Ġtriá»ĩt": 3162,
      "ord": 3163,
      "ĠnhuáºŃn": 3164,
      "thuong": 3165,
      "Ġhoang": 3166,
      "ĠChÃ¡nh": 3167,
      "ĠAustralia": 3168,
      "Ġbáº¯n": 3169,
      "95": 3170,
      "Ġtung": 3171,
      "NÄĲ": 3172,
      "Cáº§n": 3173,
      "ĠKhoáº£n": 3174,
      "Ġxá»©": 3175,
      "chuyen": 3176,
      "ĠÄĲá»ģ": 3177,
      "ĠChu": 3178,
      "Ġrá»ĳi": 3179,
      "ĠgÃł": 3180,
      "hÃ³m": 3181,
      "TrÆ°á»Ŀng": 3182,
      "Ã½t": 3183,
      "ĠUkraina": 3184,
      "ĠkiÃªn": 3185,
      "lymp": 3186,
      "NhÃł": 3187,
      "ĠÄĳáºŃp": 3188,
      "ĠtÃ¡n": 3189,
      "Ġdá»ĭ": 3190,
      "ĠInter": 3191,
      "deo": 3192,
      "ĠghÃ": 3193,
      "ĠÄĳá»ĳt": 3194,
      "Ġkhoáº»": 3195,
      "Táº¿t": 3196,
      "áº¾": 3197,
      "ĠCháº¥p": 3198,
      "ĠCai": 3199,
      "ĠGiÃ³": 3200,
      "Ġthuyáº¿t": 3201,
      "Ġbáº¡o": 3202,
      "ĠRiÃªng": 3203,
      "ĠLá»ħ": 3204,
      "Ġmá»ĳc": 3205,
      "ĠthÃ¹": 3206,
      "Ġlá»ĩch": 3207,
      "gen": 3208,
      "Gia": 3209,
      "tph": 3210,
      "Ġgháº¿": 3211,
      "Ġcuá»ĳn": 3212,
      "ĠCamp": 3213,
      "mat": 3214,
      "vie": 3215,
      "remier": 3216,
      "ĠhÆ°": 3217,
      "ĠvÆ°á»Ľng": 3218,
      "INH": 3219,
      "ĠRo": 3220,
      "vao": 3221,
      "ĠĊ": 3222,
      "ĠngÃ£": 3223,
      "Ľp": 3224,
      "ĠAir": 3225,
      "ill": 3226,
      "Xe": 3227,
      "ĠUá»·": 3228,
      "ĠChelsea": 3229,
      "An": 3230,
      "diem": 3231,
      "BÃ¬nh": 3232,
      "ĠDung": 3233,
      "ĠCÃł": 3234,
      "ĠBiden": 3235,
      "cÃ³": 3236,
      "ĠEU": 3237,
      "ngo": 3238,
      "ĠÄĳÃ¨n": 3239,
      "NT": 3240,
      "Ġmáº¯n": 3241,
      "nghiep": 3242,
      "ĠPGS": 3243,
      "hop": 3244,
      "Ġdá»įa": 3245,
      "Bank": 3246,
      "ĠquÃªn": 3247,
      "ĠkhuÃ´n": 3248,
      "ĠÄĳuá»ķi": 3249,
      "Há»ĵ": 3250,
      "ĠtÃºi": 3251,
      "ĠTÃº": 3252,
      "Ġmá»¹": 3253,
      "ĠNa": 3254,
      "200": 3255,
      "Ġcá»Ļt": 3256,
      "ĠHuá»³nh": 3257,
      "ĠTrá»ĭnh": 3258,
      "ĠtrÆ°a": 3259,
      "ĠBiá»ĥn": 3260,
      "ĠPu": 3261,
      "ĠHy": 3262,
      "âĢĿ.\",\"": 3263,
      "Ġcá»ĳng": 3264,
      "ĠSingapore": 3265,
      "ĠtrÃºc": 3266,
      "bac": 3267,
      "42": 3268,
      "cel": 3269,
      "xy": 3270,
      "Ġpháº«u": 3271,
      "ĠVFF": 3272,
      "Ġvideo": 3273,
      "ĠMá»Ĺi": 3274,
      "ĠHiá»ĩu": 3275,
      "ĠnhÅ©ng": 3276,
      "60": 3277,
      "Ġdá»¥": 3278,
      "ez": 3279,
      "Há»": 3280,
      "Ġha": 3281,
      "In": 3282,
      "ĠThá»ĥ": 3283,
      "my": 3284,
      "ĠYou": 3285,
      "ÂłÂłÂłÂł": 3286,
      "era": 3287,
      "lipp": 3288,
      "Ġlá»¥t": 3289,
      "Ġcháº£y": 3290,
      "ĠLá»ĭch": 3291,
      "Ġchá»¥p": 3292,
      "Ġsa": 3293,
      "ĠrÃ©t": 3294,
      "ĠsÃºt": 3295,
      "ĠmÃª": 3296,
      "Ġhiáº¿m": 3297,
      "Ġxáº£": 3298,
      "KS": 3299,
      "70": 3300,
      "ĠMessi": 3301,
      "ĠBáº¿n": 3302,
      "ThÃ¡i": 3303,
      "cap": 3304,
      "ĠCLB": 3305,
      "uchia": 3306,
      "ĠQuan": 3307,
      "ÌĽÌģ": 3308,
      "Ġloáº¡n": 3309,
      "ĠchÃ¢u": 3310,
      "ner": 3311,
      "ĠBr": 3312,
      "ĠÄĳÃ¢m": 3313,
      "ĠHáº¡nh": 3314,
      "ĠLiverpool": 3315,
      "pa": 3316,
      "ĠkÃ¬": 3317,
      "Ġruá»Ļt": 3318,
      "Ġkáº»": 3319,
      "ĠÄĳá»Ĺ": 3320,
      "ĠEm": 3321,
      "Ġhá»Ļp": 3322,
      "thang": 3323,
      "Ġtiáº¿c": 3324,
      "ÄĲoÃłn": 3325,
      "ĠDáº§u": 3326,
      "Ġcáº£n": 3327,
      "chinh": 3328,
      "ĠBÆ°á»Ľc": 3329,
      "ĠcÆ°á»Ľp": 3330,
      "ana": 3331,
      "ĠKCN": 3332,
      "ĠdÆ°á»£c": 3333,
      "Ġ2014": 3334,
      "Ġthang": 3335,
      "PhÃ³": 3336,
      "gan": 3337,
      "Ġsáº¯m": 3338,
      "Anh": 3339,
      "phu": 3340,
      "dang": 3341,
      "ĠhoÃłng": 3342,
      "go": 3343,
      "):": 3344,
      "Nam": 3345,
      "UYÃĬN": 3346,
      "Ġchá»ĳi": 3347,
      "ĠOlymp": 3348,
      "...\",\"": 3349,
      "tren": 3350,
      "Ġphá»ķi": 3351,
      "ĠCH": 3352,
      "ĠSong": 3353,
      "tre": 3354,
      "Ġlá»Ĺ": 3355,
      "ĠQuÃ½": 3356,
      "ĠTÃ¬nh": 3357,
      "ldld": 3358,
      "ĠAFF": 3359,
      "AND": 3360,
      "Ġhá»©ng": 3361,
      "Ġ150": 3362,
      "ĠRonaldo": 3363,
      "Ġnhi": 3364,
      "ÃĢ": 3365,
      "ĠbÃª": 3366,
      "ĠcÆ°á»Ľi": 3367,
      "ĠThÆ°": 3368,
      "ĠgiÃł": 3369,
      "ĠDá»ĭch": 3370,
      "Ġ32": 3371,
      "53": 3372,
      "Ġgiáº¿t": 3373,
      "quang": 3374,
      "ĠtÃ³c": 3375,
      "ĠHiá»ģn": 3376,
      "ĠÄĳáºŃu": 3377,
      "ĠnhiÃªu": 3378,
      "vang": 3379,
      "ĠMÃ´i": 3380,
      "dat": 3381,
      "QÄĲ": 3382,
      "BN": 3383,
      "nhieu": 3384,
      "Ġhá»©a": 3385,
      "tte": 3386,
      "ĠBÃłi": 3387,
      "ĠBÃ¡c": 3388,
      "ĠdÃły": 3389,
      "Ġven": 3390,
      "ĠThÃ¡p": 3391,
      "ĠcÆ°á»Ľc": 3392,
      "ĠNhi": 3393,
      "TC": 3394,
      "áº«y": 3395,
      "ĠchÃºt": 3396,
      "ĠlÃ¹i": 3397,
      "ĠnÃ£o": 3398,
      "bien": 3399,
      "Tá»«": 3400,
      "me": 3401,
      "ĠgÃ³c": 3402,
      "ĠSÃ¡ng": 3403,
      "SC": 3404,
      "ĠÄĲÃłi": 3405,
      "Ġ400": 3406,
      "tamin": 3407,
      "ÄĲá»ĵng": 3408,
      "Ġmáº¥y": 3409,
      "74": 3410,
      "Ġtrá»¥c": 3411,
      "ĠVietin": 3412,
      "ĠláºŃn": 3413,
      "dex": 3414,
      "ĠtrÃłn": 3415,
      "Ġvitamin": 3416,
      "ÃĮ": 3417,
      "ĠRá»": 3418,
      "ĠCSG": 3419,
      "ĠVi": 3420,
      "Ġ38": 3421,
      "52": 3422,
      "Ġná»Ĺi": 3423,
      "ĠCSGT": 3424,
      "Ġhá»ıa": 3425,
      "danh": 3426,
      "TB": 3427,
      "Ġlá»ĳc": 3428,
      "ĠCÃ¡t": 3429,
      "ĠngoÃ¡i": 3430,
      "ĠTam": 3431,
      "lippines": 3432,
      "doanh": 3433,
      "IDV": 3434,
      "ĠThá»ĳng": 3435,
      "Ġváº¯ng": 3436,
      "UBND": 3437,
      "ĠVÃło": 3438,
      "Nghá»ĩ": 3439,
      "Æł": 3440,
      "ĠMe": 3441,
      "ĠtrÆ°ng": 3442,
      "nguyen": 3443,
      "ĠThÄĥng": 3444,
      "ĠvÃŃ": 3445,
      "ĠVie": 3446,
      "ĠlÃºa": 3447,
      "nuoc": 3448,
      "ĠláºŃu": 3449,
      "Sá»Ł": 3450,
      "senal": 3451,
      "web": 3452,
      "ĠMá»Ľi": 3453,
      "ĠBÃ¡i": 3454,
      "tho": 3455,
      "ĠBu": 3456,
      "ĠCampuchia": 3457,
      "ĠngÃłn": 3458,
      "51": 3459,
      "ttel": 3460,
      "dam": 3461,
      "net": 3462,
      "quáºŃn": 3463,
      "tham": 3464,
      "ĠbuÃ½t": 3465,
      "UYá»": 3466,
      "giá»": 3467,
      "ĠHÆ¡n": 3468,
      "Ġtiá»ħn": 3469,
      "ĠcÆ¡m": 3470,
      "Ġcá»ķng": 3471,
      "tphcm": 3472,
      "Ġi": 3473,
      "ĠCho": 3474,
      "ĠVÅ©ng": 3475,
      "ĠGS": 3476,
      "ĠCáº©m": 3477,
      "vong": 3478,
      "ĠhÃ¹ng": 3479,
      "mo": 3480,
      "Ãªm": 3481,
      "Ġráº£i": 3482,
      "ĠdÃ¢m": 3483,
      "trieu": 3484,
      "giam": 3485,
      "ĠxÃ³m": 3486,
      "Ġnha": 3487,
      "ĠBV": 3488,
      "ĠtÃ¹y": 3489,
      "Ġ34": 3490,
      "Ġhá»įa": 3491,
      "ĠphÃ¡o": 3492,
      "ĠTáº¥n": 3493,
      "ĠcáºŃu": 3494,
      "Ġuá»·": 3495,
      "Vá»¥": 3496,
      "ĠÄĲÄĥng": 3497,
      "ĠLá»£i": 3498,
      "ĠvÆ°á»Ŀn": 3499,
      "Ġná»ģ": 3500,
      "Ġe": 3501,
      "Ġweb": 3502,
      "ĠLÆ°u": 3503,
      "nham": 3504,
      "Ã¹m": 3505,
      "xu": 3506,
      "ĠÄĲÃ¡ng": 3507,
      "ĠBáº¡n": 3508,
      "ĠhoÃ£n": 3509,
      "CÄĲ": 3510,
      "ĠÄĳá»©a": 3511,
      "Ġkiá»ĥu": 3512,
      "ĠCáº£": 3513,
      "ĠLÃºc": 3514,
      "Há»Ļi": 3515,
      "hin": 3516,
      "áº¢": 3517,
      "Ġclip": 3518,
      "\"\".\",\"": 3519,
      "CH": 3520,
      "Ġcá»ĳt": 3521,
      "Ġhoáº£ng": 3522,
      "ĠbÃ¡m": 3523,
      "zil": 3524,
      "ĠPhá»¥": 3525,
      "ame": 3526,
      "Viá»ĩc": 3527,
      "ĠsÃ©t": 3528,
      "ĠkÃŃn": 3529,
      "ĠcÃ£i": 3530,
      "Ġ33": 3531,
      "ackp": 3532,
      "chuc": 3533,
      "ĠtrÃ´ng": 3534,
      "Ġhá»ĵng": 3535,
      "ig": 3536,
      "Ġláº¡m": 3537,
      "ĠLoan": 3538,
      "Ġ48": 3539,
      "Æ°Æ¡n": 3540,
      "Ġmá»ĩnh": 3541,
      "ĠxuÃ¢n": 3542,
      "chung": 3543,
      "ĠNhá»": 3544,
      "Báº¥t": 3545,
      "Ġ37": 3546,
      "ĠxÆ°Æ¡ng": 3547,
      "iá»ĩng": 3548,
      "ĠcÆ°Æ¡ng": 3549,
      "ĠsÃ³t": 3550,
      "áº¥c": 3551,
      "ĠthÄĥng": 3552,
      "ĠHiáº¿u": 3553,
      "ĠII": 3554,
      "ĠEuro": 3555,
      "ĠPo": 3556,
      "áº¹t": 3557,
      "ĠLÃ£nh": 3558,
      "ĠLá»±c": 3559,
      "ThÃ´ng": 3560,
      "ĠÄĲá»ĭa": 3561,
      "benh": 3562,
      "Ã¹a": 3563,
      "ĦN": 3564,
      "Ġkhuyáº¿t": 3565,
      "Ġxá»©ng": 3566,
      "Ġ55": 3567,
      "viec": 3568,
      "AT": 3569,
      "Ġthan": 3570,
      "ĠLiÃªm": 3571,
      "Ġthuáº«n": 3572,
      "xÃ£": 3573,
      "Ġdáº¯t": 3574,
      "UYá»ĦN": 3575,
      "ĠdÃ£": 3576,
      "Ġmiá»ĩng": 3577,
      "NN": 3578,
      "Ġkháº¥u": 3579,
      "Ġkhá»ĳng": 3580,
      "CM": 3581,
      "nu": 3582,
      "hien": 3583,
      "ĠmÃ¹i": 3584,
      "65": 3585,
      "Ġhá»ģ": 3586,
      "ĠCuá»Ļc": 3587,
      "ĠThá»¥y": 3588,
      "ĠHá»ĩ": 3589,
      "Khi": 3590,
      "tá»«": 3591,
      "ĠAs": 3592,
      "ĠCa": 3593,
      "Ã¹n": 3594,
      "lon": 3595,
      "dao": 3596,
      "Ġmá»ıi": 3597,
      "ĠHÃ¬nh": 3598,
      "ĠThÃº": 3599,
      "ĠHÃłnh": 3600,
      "CÃ¡ch": 3601,
      "cá»": 3602,
      "Ġbá»ĳc": 3603,
      "Ġbá»¥ng": 3604,
      "Ġkm": 3605,
      "CT": 3606,
      "¥i": 3607,
      "ĠbÃ©o": 3608,
      "ĠSÃ³c": 3609,
      "ket": 3610,
      "90": 3611,
      "tiep": 3612,
      "ĠSá»Ńu": 3613,
      "Ġmá»±c": 3614,
      "ackpink": 3615,
      "Phi": 3616,
      "cau": 3617,
      "ero": 3618,
      "ĠOlympic": 3619,
      "Ġlá»įt": 3620,
      "tich": 3621,
      "edia": 3622,
      "ali": 3623,
      "ĠÄĳiá»ĥn": 3624,
      "2015": 3625,
      "Ġquang": 3626,
      "luc": 3627,
      "bá»": 3628,
      "ĠcÆ°á»Ŀi": 3629,
      "Ġáº£o": 3630,
      "roup": 3631,
      "hÃŃa": 3632,
      "ĠXuyÃªn": 3633,
      "Tai": 3634,
      "ry": 3635,
      "CB": 3636,
      "Ġ51": 3637,
      "ala": 3638,
      "Ġcáº¯p": 3639,
      "97": 3640,
      "Ġemail": 3641,
      "loi": 3642,
      "ĠDi": 3643,
      "ĠPutin": 3644,
      "ĠÄĳá»ģn": 3645,
      "ĠBIDV": 3646,
      "ĠVietcombank": 3647,
      "Ġnhá»ĭp": 3648,
      "han": 3649,
      "Ġhi": 3650,
      "st": 3651,
      "Vá»Ľi": 3652,
      "ara": 3653,
      "ĠÄĳiá»ĩp": 3654,
      "ris": 3655,
      "Ãģ": 3656,
      "Ġkhiáº¿u": 3657,
      "ĠSan": 3658,
      "ĠJu": 3659,
      "Ġbá»Ľt": 3660,
      "ÃŃt": 3661,
      "cach": 3662,
      "Minh": 3663,
      "ÄĲÃ¢y": 3664,
      "Ġtáº£": 3665,
      "ĠchÃ©": 3666,
      "pham": 3667,
      "oun": 3668,
      "ÄĲiá»ģu": 3669,
      "Ġngá»¥": 3670,
      "DC": 3671,
      "Náº¿u": 3672,
      "ec": 3673,
      "ĠNgá»¯": 3674,
      "ĠloÃłi": 3675,
      "ÄĲá»Ļi": 3676,
      "ĠnÃ©": 3677,
      "ĠchÃ¬": 3678,
      "nghe": 3679,
      "ĠtÃ¢n": 3680,
      "canh": 3681,
      "ÌĤÌī": 3682,
      "USD": 3683,
      "ĠPremier": 3684,
      "ÃĮNH": 3685,
      "pho": 3686,
      "Ġtrá»©ng": 3687,
      "Tu": 3688,
      "ae": 3689,
      "Lu": 3690,
      "Nhiá»ģu": 3691,
      "tá»īnh": 3692,
      "ron": 3693,
      "ÌĽÌĢ": 3694,
      "Ġlá»ıng": 3695,
      "ĠbÃ¢y": 3696,
      "63": 3697,
      "ĠPhilippines": 3698,
      "AN": 3699,
      "ÄĳÃ£": 3700,
      "400": 3701,
      "ĠTiáº¿ng": 3702,
      "AG": 3703,
      "io": 3704,
      "vo": 3705,
      "ĠIt": 3706,
      "toi": 3707,
      "ĠmÃ£i": 3708,
      "Lá»ĭch": 3709,
      "hÃª": 3710,
      "AE": 3711,
      "Ġcá»Ŀ": 3712,
      "ĠViettel": 3713,
      "¹y": 3714,
      "Ġtop": 3715,
      "ĠtÆ°á»Ŀng": 3716,
      "chong": 3717,
      "ĠdáºŃy": 3718,
      "ĠÄĲÃ´": 3719,
      "ĠTháºŃm": 3720,
      "PTNT": 3721,
      "ĠdÃ¡m": 3722,
      "ama": 3723,
      "ĠTháº¡ch": 3724,
      "thai": 3725,
      "ĠThá»ĭnh": 3726,
      "ĠDoanh": 3727,
      "Vaccine": 3728,
      "celona": 3729,
      "ĠmÃ¡t": 3730,
      "Ġnáº¥u": 3731,
      "ttenham": 3732,
      "ĠÄĳáºŃm": 3733,
      "Ġcá»§ng": 3734,
      "ĠTÄĥng": 3735,
      "ĠthÃ©p": 3736,
      "á»ĥ": 3737,
      "Ġmá»ĩt": 3738,
      "ĠvÆ°Æ¡n": 3739,
      "ĠRá»ĭa": 3740,
      "ĠIs": 3741,
      "ĠhoÃł": 3742,
      "ĠMá»©c": 3743,
      "Ġbáº¡": 3744,
      "ĠlÃ£ng": 3745,
      "cÃ´ng": 3746,
      "ina": 3747,
      "ĠMá»įi": 3748,
      "ÃŃn": 3749,
      "ĠJoe": 3750,
      "dieu": 3751,
      "ĠHÆ°á»Ľng": 3752,
      "68": 3753,
      "ĠÄĳÃ¡o": 3754,
      "Ġtreo": 3755,
      "ĠbÆ¡": 3756,
      "ech": 3757,
      "ĠtrÃł": 3758,
      "razil": 3759,
      "istan": 3760,
      "ĠKhá»": 3761,
      "CÃ³": 3762,
      "ĠtÃłng": 3763,
      "Hiá»ĩn": 3764,
      "ĠkhoÃ¡": 3765,
      "ĠJong": 3766,
      "phan": 3767,
      "ĠsÃ´i": 3768,
      "ĠTÃ´": 3769,
      "Ġá»ĳng": 3770,
      "ĠÄĳÃł": 3771,
      "Ġmá»ķ": 3772,
      "ĠNá»¯": 3773,
      "alo": 3774,
      "day": 3775,
      "Ġláº¯m": 3776,
      "Ġdá»Ŀi": 3777,
      "no": 3778,
      "ĠSu": 3779,
      "ĠBá»ĵ": 3780,
      "chester": 3781,
      "tet": 3782,
      "iz": 3783,
      "ĠthÃ³": 3784,
      "ĠLá»ĩ": 3785,
      "hÃ²ng": 3786,
      "ach": 3787,
      "Ġsu": 3788,
      "ĠHuá»ĩ": 3789,
      "ĠngÆ°": 3790,
      "hn": 3791,
      "ÄĤ": 3792,
      "ĠTÃ²a": 3793,
      "ĠHÃ£y": 3794,
      "ĠArsenal": 3795,
      "ĠXIII": 3796,
      "DI": 3797,
      "ico": 3798,
      "ĠTrÄĥng": 3799,
      "ĠThÃŃ": 3800,
      "ĠNN": 3801,
      "ĠBÄĲ": 3802,
      "EC": 3803,
      "Ġngáº§m": 3804,
      "ĠtrÃ´i": 3805,
      "ĠchÄĥn": 3806,
      "ĠkhÃ¢u": 3807,
      "ĠTráºŃn": 3808,
      "ĠtÃ´ng": 3809,
      "sang": 3810,
      "73": 3811,
      "Æ°á»£n": 3812,
      "Ġbia": 3813,
      "Ġláº§m": 3814,
      "ĠÃ¹n": 3815,
      "Ġráº»": 3816,
      "che": 3817,
      "ĠNá»į": 3818,
      "app": 3819,
      "ĠBarca": 3820,
      "ĠbÃ²": 3821,
      "ĠTrÃ¡i": 3822,
      "áº³": 3823,
      "ene": 3824,
      "long": 3825,
      "ĠCÄĥn": 3826,
      "64": 3827,
      "nhi": 3828,
      "wi": 3829,
      "ĠVáºŃy": 3830,
      "tainer": 3831,
      "ĠChuyÃªn": 3832,
      "ĠhÃłm": 3833,
      "ĠThi": 3834,
      "Ġti": 3835,
      "FC": 3836,
      "Ġ39": 3837,
      "ĠNháºŃn": 3838,
      "mot": 3839,
      "xuat": 3840,
      "minh": 3841,
      "sung": 3842,
      "ĠnÃ©t": 3843,
      "ĠMi": 3844,
      "ĠNhung": 3845,
      "Má»": 3846,
      "ĠVTV": 3847,
      "Ġcamera": 3848,
      "Ġtest": 3849,
      "ĠÄĳá»ĵn": 3850,
      "\"\"\",\"": 3851,
      "ĠnhÃ£n": 3852,
      "á»±u": 3853,
      "BÃ£o": 3854,
      "ast": 3855,
      "Ġkia": 3856,
      "ĠDá»": 3857,
      "ane": 3858,
      "Ġli": 3859,
      "ĠghÃ©p": 3860,
      "ĠVÃŃ": 3861,
      "ĠDiá»ħn": 3862,
      "Ġ00": 3863,
      "Ġtráº¡i": 3864,
      "ĠquÃ©t": 3865,
      "song": 3866,
      "ĠSer": 3867,
      "Ġváº£": 3868,
      "OT": 3869,
      "ick": 3870,
      "Ġgan": 3871,
      "ĠHá»Ĺ": 3872,
      "ĠBo": 3873,
      "Ġtráº¯c": 3874,
      "ĠMV": 3875,
      "hu": 3876,
      "KhÃ¡nh": 3877,
      "ĠTháº¡nh": 3878,
      "ĠCáº£ng": 3879,
      "ĠPhÃŃa": 3880,
      "Ġgá»įn": 3881,
      "ĠTAND": 3882,
      "bai": 3883,
      "Ġ2013": 3884,
      "than": 3885,
      "ex": 3886,
      "theo": 3887,
      "lay": 3888,
      "Doanh": 3889,
      "ĠCÃ¢u": 3890,
      "ĠTop": 3891,
      "giang": 3892,
      "ĠQuáºŃn": 3893,
      "Ġdá»¡": 3894,
      "Ġkhá»Ń": 3895,
      "PC": 3896,
      "Ġngon": 3897,
      "ĠNH": 3898,
      "âĢ¦\",\"": 3899,
      "Index": 3900,
      "Ġngá»įt": 3901,
      "ĠcÃ¡t": 3902,
      "ĠÃ´n": 3903,
      "ĠchÃ¹a": 3904,
      "Ġchuyá»ģn": 3905,
      "Ġvá»Ŀi": 3906,
      "VI": 3907,
      "ĠSam": 3908,
      "Ġlang": 3909,
      "TN": 3910,
      "ĠxÆ°á»Łng": 3911,
      "ĠItalia": 3912,
      "ĠVietinbank": 3913,
      "ĠmÃ¬": 3914,
      "giá»Ŀ": 3915,
      "Ġtuá»ĩ": 3916,
      "80": 3917,
      "bang": 3918,
      "ja": 3919,
      "nao": 3920,
      "á»ĳm": 3921,
      "PhÆ°Æ¡ng": 3922,
      "lad": 3923,
      ",...": 3924,
      "ĠArab": 3925,
      "ounce": 3926,
      "mm": 3927,
      "ĠtÃ´m": 3928,
      "Ġtháº£m": 3929,
      "Ġháº§m": 3930,
      "Ġháº¹p": 3931,
      "Ġgiáº¥u": 3932,
      "Ġbáº¿p": 3933,
      "itco": 3934,
      "áº³n": 3935,
      "ÃĶ": 3936,
      "hanh": 3937,
      "ev": 3938,
      "Hoa": 3939,
      "TA": 3940,
      "ĠkhÃ³c": 3941,
      "ĠdáºŃp": 3942,
      "JC": 3943,
      "ĠCar": 3944,
      "ĠTrÃŃ": 3945,
      "Media": 3946,
      "ey": 3947,
      "áºłI": 3948,
      "Ġngá»Ļ": 3949,
      "Ġtráº§m": 3950,
      "GD": 3951,
      "ĠTN": 3952,
      "Báº¯c": 3953,
      "Ġphá»ıng": 3954,
      "§a": 3955,
      "ĠKiá»ģu": 3956,
      "Ġthá»±": 3957,
      "khoi": 3958,
      "IC": 3959,
      "Ná»¯": 3960,
      "ĠPhÃ¹ng": 3961,
      "ĠVND": 3962,
      "huong": 3963,
      "ĠtÃ¡o": 3964,
      "LuáºŃt": 3965,
      "ThÃłnh": 3966,
      "87": 3967,
      "tuc": 3968,
      "ĠCÃ¡i": 3969,
      "ood": 3970,
      "85": 3971,
      "irus": 3972,
      "Ġtá»ĳn": 3973,
      "khu": 3974,
      "tong": 3975,
      "ĠÄĲáº¡t": 3976,
      "Ġváº¥t": 3977,
      "Ġvá»ı": 3978,
      "ĠmÃ¢u": 3979,
      "ĠQuyá»ģn": 3980,
      "ChÃŃnh": 3981,
      "ĠHuyá»ģn": 3982,
      "Ġ&": 3983,
      "Ġmáº¡o": 3984,
      "ĠTT": 3985,
      "ĠSÃ´ng": 3986,
      "ĠDanh": 3987,
      "ĠTim": 3988,
      "Ġtráº§n": 3989,
      "VÅ©": 3990,
      "94": 3991,
      "Ġche": 3992,
      "lich": 3993,
      "vÃł": 3994,
      "hÃ´": 3995,
      "ĠthÃ³i": 3996,
      "Ġhung": 3997,
      "ad": 3998,
      "Ġhá»ĳi": 3999,
      "ĠThiá»ĩn": 4000,
      "ĠÄĲB": 4001,
      "site": 4002,
      "Ġcháº©n": 4003,
      "ĠÃģnh": 4004,
      "ĠUAE": 4005,
      "ĠBrazil": 4006,
      "Ġbá»Ļt": 4007,
      "Ġtrá»«ng": 4008,
      "ĠGr": 4009,
      "ĠThÃºy": 4010,
      "IV": 4011,
      "ĠQL": 4012,
      "ĠVietnam": 4013,
      "Ġdá»įc": 4014,
      "Ġ120": 4015,
      "ĠThá»ķ": 4016,
      "cung": 4017,
      "ĠkhÃ¡t": 4018,
      "ĠCam": 4019,
      "gle": 4020,
      "toan": 4021,
      "sat": 4022,
      "ĠNhÃ³m": 4023,
      "ĠtÃ¡ch": 4024,
      "arao": 4025,
      "Nga": 4026,
      "ĠChiá»ģu": 4027,
      "AGL": 4028,
      "ĠViÃªn": 4029,
      "Thu": 4030,
      "chua": 4031,
      "ano": 4032,
      "Ġthiá»ĩp": 4033,
      "ĠChia": 4034,
      "Ġtáº¯m": 4035,
      "Ġal": 4036,
      "len": 4037,
      "ĠÄĲÆ¡n": 4038,
      "ĠLáº¡ng": 4039,
      "Ġngáº¡ch": 4040,
      "ĠÄĳáº¡n": 4041,
      "trai": 4042,
      "Ġháº³n": 4043,
      "op": 4044,
      "ĠLÃł": 4045,
      "Ġ42": 4046,
      "áº¾T": 4047,
      "tina": 4048,
      "ĠCáº¥p": 4049,
      "tay": 4050,
      "ĠthÃ¹ng": 4051,
      "rael": 4052,
      "ĠTriá»ĩu": 4053,
      "ĠxÃ³a": 4054,
      "ĠNÃ³i": 4055,
      "ĠSH": 4056,
      "Pháº¡m": 4057,
      "Ġthá»Ŀ": 4058,
      "ĠgiÃ¡p": 4059,
      "tap": 4060,
      "luong": 4061,
      "ashi": 4062,
      "Ġfan": 4063,
      "ĠDÆ°á»£c": 4064,
      "Ġ75": 4065,
      "Káº¿t": 4066,
      "Ġtrá»ĳng": 4067,
      "ĠHá»ĵi": 4068,
      "BH": 4069,
      "ĠvÄ©": 4070,
      "Ġtáº¯t": 4071,
      "ĠgiÃ¢y": 4072,
      "oogle": 4073,
      "Ġcá»¥m": 4074,
      "Ġviá»ħn": 4075,
      "Ġ600": 4076,
      "Ã¨n": 4077,
      "3923": 4078,
      "ĠLam": 4079,
      "ĠNS": 4080,
      "Ġcontainer": 4081,
      "ÄĲá»ģ": 4082,
      "ĠUy": 4083,
      "ĠKhoáº£ng": 4084,
      "Thi": 4085,
      "ĠÄĲá»ĵn": 4086,
      "Trá»": 4087,
      "Ġláº¥n": 4088,
      "ĠgiÆ°á»Ŀng": 4089,
      "PhÃ¡t": 4090,
      "sk": 4091,
      "Ġbom": 4092,
      "ĠmÆ°á»£n": 4093,
      "ĠHar": 4094,
      "sao": 4095,
      "ĠdÃłn": 4096,
      "ĠThay": 4097,
      "ĠMil": 4098,
      "ork": 4099,
      "kien": 4100,
      "ĠSt": 4101,
      "Ġ024": 4102,
      "phai": 4103,
      "ĠÃ´m": 4104,
      "ĠÄĳáº¡p": 4105,
      "Ġ43": 4106,
      "ĠNghi": 4107,
      "ĠPC": 4108,
      "ĠMay": 4109,
      "Ġháº£o": 4110,
      "xx": 4111,
      "600": 4112,
      "Ġhoan": 4113,
      "za": 4114,
      "Ġsá»¹": 4115,
      "ĠNhÄ©": 4116,
      "84": 4117,
      "Ġnhá»Ł": 4118,
      "ĠmÃ©t": 4119,
      "Ġbá»ģ": 4120,
      "trang": 4121,
      "ĠPháº§n": 4122,
      "ĠTham": 4123,
      "mac": 4124,
      "ĠSol": 4125,
      "Ġsá»ĳc": 4126,
      "khai": 4127,
      "Ġnhá»±a": 4128,
      "araoke": 4129,
      "Ġtaxi": 4130,
      "Ġtrá»įn": 4131,
      "Ġtá»±u": 4132,
      "Ġtan": 4133,
      "Phim": 4134,
      "Ġ2012": 4135,
      "NÄĥm": 4136,
      "ĠSJC": 4137,
      "TBXH": 4138,
      "ĠMC": 4139,
      "vent": 4140,
      "Cty": 4141,
      "Ġngu": 4142,
      "Ġgá»£i": 4143,
      "ĠTottenham": 4144,
      "Giáº£i": 4145,
      "ĠSÆ°": 4146,
      "Ġvu": 4147,
      "LC": 4148,
      "iss": 4149,
      "HLV": 4150,
      "Phone": 4151,
      "Ġlá»ĵ": 4152,
      "IFA": 4153,
      "BC": 4154,
      "ĠYáº¿n": 4155,
      "Ġngá»±": 4156,
      "inho": 4157,
      "á»Ĩ": 4158,
      "Ġcáº¥t": 4159,
      "Ġcanh": 4160,
      "IA": 4161,
      "áº¦": 4162,
      "Ġná»ĵng": 4163,
      "phuc": 4164,
      "83": 4165,
      "cam": 4166,
      "ĠKiáº¿n": 4167,
      "ĠPa": 4168,
      "Ġoxy": 4169,
      "Ġnháº£y": 4170,
      "nay": 4171,
      "ĠTrinh": 4172,
      "ĠNhÆ¡n": 4173,
      "Ġ56": 4174,
      "ĠkhoÃ¡ng": 4175,
      "und": 4176,
      "lá»": 4177,
      "ell": 4178,
      "Lao": 4179,
      "ters": 4180,
      "ĠNNPTNT": 4181,
      "Ġgiáº¥c": 4182,
      "Ġ41": 4183,
      "ĠchÃªnh": 4184,
      "ĠkhÃ´i": 4185,
      "ĠBarcelona": 4186,
      "tran": 4187,
      "Ġ65": 4188,
      "áº¦N": 4189,
      "OS": 4190,
      "ÄĲáº·ng": 4191,
      "Ġkhá»ķng": 4192,
      "âĢĭ": 4193,
      "Quá»ĳc": 4194,
      "Ġtá»©": 4195,
      "Ġbi": 4196,
      "%;": 4197,
      "ves": 4198,
      "ÄĲá»ĥ": 4199,
      "Tiá»ģn": 4200,
      "Ġváº§y": 4201,
      "ĠsÃ¡nh": 4202,
      "93": 4203,
      "ĠdÃ¢ng": 4204,
      "ĠArabia": 4205,
      "may": 4206,
      "ĠTá»·": 4207,
      "Ġcá»©ng": 4208,
      "ĠnÃºt": 4209,
      "Ġdiá»ĩt": 4210,
      "ĠxÆ¡": 4211,
      "īa": 4212,
      "ĠtrÃ²n": 4213,
      "ĠKhai": 4214,
      "ventus": 4215,
      "ĠCA": 4216,
      "olf": 4217,
      "Ġtha": 4218,
      "Ġbá»ķng": 4219,
      "thay": 4220,
      "xit": 4221,
      "Tá»·": 4222,
      "ĠdÆ°á»Ŀng": 4223,
      "trá»": 4224,
      "ĠJohn": 4225,
      "Ġdáº¡": 4226,
      "ĠAi": 4227,
      "ĠHuyá»ĩn": 4228,
      "Ġdá»įn": 4229,
      "ĠBá»ĭ": 4230,
      "cÃ¡c": 4231,
      "ĠgÃ¡nh": 4232,
      "800": 4233,
      "Thá»±c": 4234,
      "ĠÃ¢n": 4235,
      "Ġmuá»Ļn": 4236,
      "bay": 4237,
      "ĠPar": 4238,
      "lÃł": 4239,
      "tl": 4240,
      "ĠTá»±": 4241,
      "cuu": 4242,
      "ham": 4243,
      "ĠHAGL": 4244,
      "Ġshow": 4245,
      "Ġváº¹n": 4246,
      "ĠKá»¹": 4247,
      "ĠvÃµ": 4248,
      "ĠTráº¡m": 4249,
      "ĠDÆ°á»Ľi": 4250,
      "ĠTá»Ń": 4251,
      "âĢĿ-": 4252,
      "anada": 4253,
      "Ġnáº¡i": 4254,
      "Ġhá»Ĺn": 4255,
      "gentina": 4256,
      "ĠngÃµ": 4257,
      "nong": 4258,
      "Ġbá»¥i": 4259,
      "RO": 4260,
      "QT": 4261,
      "ĠTÆ°á»Ŀng": 4262,
      "Ġdá»ĵn": 4263,
      "Ġ2025": 4264,
      "ĠmÃ³c": 4265,
      "Khu": 4266,
      "ĠRa": 4267,
      "Ġkáº¹t": 4268,
      "sal": 4269,
      "ĠcÃºng": 4270,
      "truoc": 4271,
      "tÄĥng": 4272,
      "ANH": 4273,
      "ÌĤÌĥ": 4274,
      "ĠlÃ²": 4275,
      "2014": 4276,
      "Ġgiá»įng": 4277,
      "ate": 4278,
      "ĠBOT": 4279,
      "ĠSaudi": 4280,
      "Ġmuá»ĳi": 4281,
      "ĠkhuyÃªn": 4282,
      "Báº§u": 4283,
      "ĠrÃ£i": 4284,
      "ĠÄĲáº¥t": 4285,
      "ĠBTS": 4286,
      "ĠlÆ¡": 4287,
      "ĠÄĳáº¯t": 4288,
      "ĠCÃºp": 4289,
      "Ġcá»ı": 4290,
      "ĠThiáº¿u": 4291,
      "ĠâĢĭ": 4292,
      "ĠlÃ£m": 4293,
      "ngoai": 4294,
      "ĠÄĲiá»ĥn": 4295,
      "ĠHá»ıa": 4296,
      "ÄĲÃĮNH": 4297,
      "Ġmá»ı": 4298,
      "BÃł": 4299,
      "ĠLáº¡c": 4300,
      "ĠthÆ°á»Ľc": 4301,
      "Ġmáº£nh": 4302,
      "ĠHe": 4303,
      "EO": 4304,
      "ĠXV": 4305,
      "Ġgáº¯t": 4306,
      "Ġchua": 4307,
      "Ġdá»ĳc": 4308,
      "ĠTá»ĳi": 4309,
      "sian": 4310,
      "ĠNghiÃªn": 4311,
      "Ã¨o": 4312,
      "ĠdÃŃnh": 4313,
      "Ġláº¥p": 4314,
      "ĠCuá»ĳi": 4315,
      "Ġthoáº£i": 4316,
      "Ġ95": 4317,
      "ĠAP": 4318,
      "Ġáº¢": 4319,
      "ĠlÆ°á»Ŀng": 4320,
      "mang": 4321,
      "ino": 4322,
      "ĠsÆ°Æ¡ng": 4323,
      "ĠDa": 4324,
      "pple": 4325,
      "tter": 4326,
      "ĠKon": 4327,
      "67": 4328,
      "ĠANH": 4329,
      "ĠchÃłng": 4330,
      "ĠxÆ°a": 4331,
      "Ca": 4332,
      "ĠChÆ°a": 4333,
      "VÃ¬": 4334,
      "ĠKhÃŃ": 4335,
      "khan": 4336,
      "há»įc": 4337,
      "ĠBKS": 4338,
      "lor": 4339,
      "Ġ115": 4340,
      "KT": 4341,
      "Ġkhá»Ľp": 4342,
      "ĠManchester": 4343,
      "tac": 4344,
      "ĠCS": 4345,
      "Ġluá»ĵng": 4346,
      "TTg": 4347,
      "uez": 4348,
      "Tráº§n": 4349,
      "ĠlÆ°ng": 4350,
      "ĠTÃ´n": 4351,
      "ĠAT": 4352,
      "phuong": 4353,
      "Man": 4354,
      "anmar": 4355,
      "ĠMÃ´n": 4356,
      "Ġna": 4357,
      "ĠtuÃ½": 4358,
      "Æ¯Æł": 4359,
      "QG": 4360,
      "Ġphu": 4361,
      "nhiem": 4362,
      "eon": 4363,
      "ess": 4364,
      "ĠTÆ°Æ¡ng": 4365,
      "ĠPSG": 4366,
      "Æ¯ÆłNG": 4367,
      "ers": 4368,
      "ĠBÃŃch": 4369,
      "Ġhá»¥t": 4370,
      "ĠTuyáº¿t": 4371,
      ",âĢ¦": 4372,
      "ram": 4373,
      "Ġtá»§": 4374,
      "ĠQuÃ¡": 4375,
      "Ġ700": 4376,
      "tein": 4377,
      "ĠbÆ¡i": 4378,
      "ÃĤY": 4379,
      "Ġwebsite": 4380,
      "Ġtháº£": 4381,
      "ĠgÃ£y": 4382,
      "ĠLÃłm": 4383,
      "Ġxoay": 4384,
      "má»Ļt": 4385,
      "ĠIII": 4386,
      "iá»ħu": 4387,
      "ĠPháºŃt": 4388,
      "lines": 4389,
      "Ļi": 4390,
      "euters": 4391,
      "ĠKhang": 4392,
      "NLÄĲ": 4393,
      "Ġá»ĳm": 4394,
      "ĠYo": 4395,
      "Ġphun": 4396,
      "lin": 4397,
      "ĠÃ¡i": 4398,
      "ĠNo": 4399,
      "ĠgiÃ¡n": 4400,
      "Ġngá»±c": 4401,
      "ĠIsrael": 4402,
      "ĠTÃŃn": 4403,
      "utsal": 4404,
      "Ġgay": 4405,
      "ÄĲáº¯k": 4406,
      "itcoin": 4407,
      "lien": 4408,
      "ĠTre": 4409,
      "Ġ46": 4410,
      "á»µ": 4411,
      "ĠBay": 4412,
      "cÆ¡": 4413,
      "ĠCanada": 4414,
      "ĠVP": 4415,
      "ĠmÃ£n": 4416,
      "ĠChá»£": 4417,
      "ĠKhÃª": 4418,
      "ĠrÃ¨n": 4419,
      "ĠKie": 4420,
      "MINH": 4421,
      "tim": 4422,
      "ĠkhÆ¡i": 4423,
      "ĠTum": 4424,
      "ngton": 4425,
      "ĠChÃ": 4426,
      "ĠCu": 4427,
      "Ġ44": 4428,
      "HÃłng": 4429,
      "ASA": 4430,
      "Ġchá»«ng": 4431,
      "ThÃ¡ng": 4432,
      "Ã²i": 4433,
      "Báº£n": 4434,
      "Ġmáº·n": 4435,
      "ĠÄĳá»«ng": 4436,
      "ĠHÃ¡n": 4437,
      "ĠtÄ©nh": 4438,
      "ka": 4439,
      "ĠCanh": 4440,
      "ford": 4441,
      "ĠÄĲáº¡o": 4442,
      "tuoi": 4443,
      "kiem": 4444,
      "ÃĻ": 4445,
      "ini": 4446,
      "Ġváº£i": 4447,
      "ĠAg": 4448,
      "ĠThuá»·": 4449,
      "Ġ63": 4450,
      "ĠrÄĥng": 4451,
      "ĠsáºŃp": 4452,
      "Ġmiáº¿ng": 4453,
      "Ġ800": 4454,
      "ĠÄĲÃ£": 4455,
      "Cá»¥": 4456,
      "ru": 4457,
      "ĠbÃ¡": 4458,
      "ĠÄĲÃ¡p": 4459,
      "Con": 4460,
      "69": 4461,
      "Ġ250": 4462,
      "ĠtoÃł": 4463,
      "ĠLee": 4464,
      "ĠdÃ¢u": 4465,
      "uon": 4466,
      "pha": 4467,
      "ĠkiÃªm": 4468,
      "ashington": 4469,
      "TR": 4470,
      "ĠÄĳam": 4471,
      "Ġgom": 4472,
      "ĠHoáº·c": 4473,
      "CÃ¡n": 4474,
      "ĠcÆ°á»¡ng": 4475,
      "ĠtrÃ¢n": 4476,
      "HoÃłng": 4477,
      "Ġ47": 4478,
      "ĠchÃ¬m": 4479,
      "ĠÄĲiá»ģn": 4480,
      "ĠNGUYÃĬN": 4481,
      "ĠDe": 4482,
      "ĠBlackpink": 4483,
      "ĠtrÆ°á»£t": 4484,
      "Vá»ģ": 4485,
      "ninh": 4486,
      "ĠmÃ¹ng": 4487,
      "yeu": 4488,
      "ĠVáºŃt": 4489,
      "ÂłĠ": 4490,
      "PhÃ²ng": 4491,
      "gay": 4492,
      "0000": 4493,
      "¨ng": 4494,
      "Ġ2030": 4495,
      "trinh": 4496,
      "ĠâĢĭâĢĭ": 4497,
      "ĠThiáº¿t": 4498,
      "Ġvá»īa": 4499,
      "ĠAm": 4500,
      "ĠtrÄĥng": 4501,
      "urinho": 4502,
      "ĠBÃ¡": 4503,
      "CÆ¡": 4504,
      "Chá»ī": 4505,
      "biz": 4506,
      "ĠdÃ¡ng": 4507,
      "ThÃ": 4508,
      "Ã©o": 4509,
      "Ġváº½": 4510,
      "BÃŃ": 4511,
      "BS": 4512,
      "ĠSG": 4513,
      "HTT": 4514,
      "ĠVÃ²ng": 4515,
      "Xem": 4516,
      "gian": 4517,
      "ĠGroup": 4518,
      "Ġ.": 4519,
      "xin": 4520,
      "ĠArgentina": 4521,
      "Ġsá»¥t": 4522,
      "ÄĳÆ°á»£c": 4523,
      "Ġsoáº¡n": 4524,
      "hieu": 4525,
      "ĠWashington": 4526,
      "ĠcÃłi": 4527,
      "xay": 4528,
      "ĠsÄĥn": 4529,
      "Ġáº¥p": 4530,
      "ĠKr": 4531,
      "Ġhu": 4532,
      "ĠLÄĲTBXH": 4533,
      "ĠAirlines": 4534,
      "Ġláº·ng": 4535,
      "ÃĤN": 4536,
      "Ġá»ĵn": 4537,
      "them": 4538,
      "MÃ¡i": 4539,
      "phÆ°á»Ŀng": 4540,
      "Ġhá»ķ": 4541,
      "ĠhÃ´i": 4542,
      "by": 4543,
      "ĠCá»Ńa": 4544,
      "imir": 4545,
      "ĠBÃ¡ch": 4546,
      "ĠSá»©c": 4547,
      "Ġká»ī": 4548,
      "ĠÄĳÆ°Æ¡": 4549,
      "ĠÂłĠÂłĠÂłĠÂł": 4550,
      "ĠSáº£n": 4551,
      "ĠHÄĲQT": 4552,
      "NQ": 4553,
      "%/": 4554,
      "ĠBá»ī": 4555,
      "náº¿u": 4556,
      "Ġráº¡ng": 4557,
      "áº¹o": 4558,
      "Ġnáº¡p": 4559,
      "ĠKia": 4560,
      "tis": 4561,
      "enn": 4562,
      "ĠgÃ¬n": 4563,
      "Ġ2011": 4564,
      "Cáº£nh": 4565,
      "ladimir": 4566,
      "ĠInternet": 4567,
      "Tá»ĳi": 4568,
      "QH": 4569,
      "ĠMTV": 4570,
      "ĠdÃ²": 4571,
      "cá»§a": 4572,
      "á»ĳp": 4573,
      "TÃ¬nh": 4574,
      "ĠLy": 4575,
      "Ġnháº¡": 4576,
      "Ġgame": 4577,
      "Ġcá»ĵn": 4578,
      "ĠYork": 4579,
      "ĠChá»©ng": 4580,
      "ĠBáº¥t": 4581,
      "Ġtá»ħ": 4582,
      "PhÃº": 4583,
      "ĠÄĳáº¿": 4584,
      "nan": 4585,
      "Ġthá»£": 4586,
      "ĠchiÃªu": 4587,
      "ĠMá»¥c": 4588,
      "uezone": 4589,
      "ĠThÃªm": 4590,
      "dua": 4591,
      "all": 4592,
      "ĠduyÃªn": 4593,
      "chay": 4594,
      "ĠbÆ¡m": 4595,
      "ĠSun": 4596,
      "ĠÄĲÃĤY": 4597,
      "700": 4598,
      "Ġ49": 4599,
      "nga": 4600,
      "ĠTráº¯ng": 4601,
      "ĠAsian": 4602,
      "ĠSHB": 4603,
      "Cuá»Ļc": 4604,
      "ĠthoÃ¡i": 4605,
      "ĠVI": 4606,
      "ÄĲÆ°á»Ŀng": 4607,
      "ĠPháº£i": 4608,
      "ĠMá»Ł": 4609,
      "ĠTá»ī": 4610,
      "ĠMyanmar": 4611,
      "Ġ*": 4612,
      "ĠXe": 4613,
      "ĠSport": 4614,
      "Ġnháº¡y": 4615,
      "ĠvÆ°Æ¡ng": 4616,
      "jet": 4617,
      "ĠSeo": 4618,
      "Ġ2010": 4619,
      "Ġkaraoke": 4620,
      "icron": 4621,
      "ĠJuventus": 4622,
      "Chi": 4623,
      "ww": 4624,
      "ĠThÃ¹y": 4625,
      "ĠTÃ½": 4626,
      "lÃŃt": 4627,
      "Ká»³": 4628,
      "Ġlong": 4629,
      "ota": 4630,
      "ĠNÃ³": 4631,
      "Giá»": 4632,
      "ĠKá»ĥ": 4633,
      "225": 4634,
      "gio": 4635,
      "758": 4636,
      "Ġtoáº£": 4637,
      "tá»©c": 4638,
      "hinh": 4639,
      "sach": 4640,
      "ĠHÃ´m": 4641,
      "khach": 4642,
      "ĠNhÃ¬n": 4643,
      "Ġcáº©n": 4644,
      "ĠchÃ¢m": 4645,
      "ĠTrÃ¬": 4646,
      "ĠÄĳáº»": 4647,
      "XX": 4648,
      "NGUYá»ĦN": 4649,
      "Ġpro": 4650,
      "ĠAFC": 4651,
      "ĠHÃ´n": 4652,
      "ĠGoogle": 4653,
      "hau": 4654,
      "ĠÄĳáº¯p": 4655,
      "ĠGrab": 4656,
      "mon": 4657,
      "Ġnghiá»ĩn": 4658,
      "ĠÄĳá»©t": 4659,
      "tieu": 4660,
      "ĠtÃłn": 4661,
      "ĠTrÆ°ng": 4662,
      "ĠKá»·": 4663,
      "Ġká»ģ": 4664,
      "ĠNgÃłnh": 4665,
      "na": 4666,
      "Ġleo": 4667,
      "ĠvÆ¡": 4668,
      "ĠDáº§n": 4669,
      "Ġ54": 4670,
      "nhap": 4671,
      "TáºŃp": 4672,
      "ĠbÃ¡ch": 4673,
      "Ġá»©c": 4674,
      "NháºŃt": 4675,
      "ĠSGK": 4676,
      "kyo": 4677,
      "cuoc": 4678,
      "cham": 4679,
      "Ġtrá»Ļn": 4680,
      "Ġ72": 4681,
      "ĠTra": 4682,
      "ĠEVN": 4683,
      "ĠrÃ²ng": 4684,
      "ĠLáºŃp": 4685,
      "Ġong": 4686,
      "Phá»": 4687,
      "Ġphanh": 4688,
      "Ġtro": 4689,
      "ÂłĊ": 4690,
      "ies": 4691,
      "ĠngÆ¡i": 4692,
      "ĠkÄ©": 4693,
      "GDÄĲT": 4694,
      "ĠDel": 4695,
      "ĠGáº§n": 4696,
      "PH": 4697,
      "BÃ³ng": 4698,
      "Ġ62": 4699,
      "ĠHuáº¥n": 4700,
      "Ġáº¢nh": 4701,
      "ĠiPhone": 4702,
      "72": 4703,
      "ANG": 4704,
      "ĠÄĲá»ĳng": 4705,
      "ĠThan": 4706,
      "ĠlÄĥn": 4707,
      "LÃª": 4708,
      "ĠgiÃły": 4709,
      "ip": 4710,
      "bum": 4711,
      "uel": 4712,
      "Ġtá»įa": 4713,
      "Ġlá»©a": 4714,
      "tiet": 4715,
      "ĠAle": 4716,
      "ĠLáº§n": 4717,
      "ĠÄĳáº¯c": 4718,
      "ley": 4719,
      "Sá»±": 4720,
      "Ġmá»¡": 4721,
      "raq": 4722,
      "Ġgá»ĳi": 4723,
      "pop": 4724,
      "NhÃ³m": 4725,
      "Ġcháº·ng": 4726,
      "Me": 4727,
      "Thá»ĭ": 4728,
      "Ĺng": 4729,
      "Ġvá»£t": 4730,
      "Ġtrá»Ļi": 4731,
      "ĠVá»ĭ": 4732,
      "Ġnháº§m": 4733,
      "ĠÄĳÃº": 4734,
      "ĠÄĳá»±ng": 4735,
      "Ġ52": 4736,
      "GT": 4737,
      "ĠÄĳiá»ĩu": 4738,
      "ĠTuyá»ĥn": 4739,
      "Ngá»įc": 4740,
      "Báº¯t": 4741,
      "á»ĨT": 4742,
      "ee": 4743,
      "lap": 4744,
      "....": 4745,
      "truc": 4746,
      "ĠSá»Ń": 4747,
      "Ġchai": 4748,
      "ÌĨÌģ": 4749,
      "Ġ68": 4750,
      "92": 4751,
      "ĠnÃ¡t": 4752,
      "Ġbáº©n": 4753,
      "ĠFIFA": 4754,
      ".\",": 4755,
      "ON": 4756,
      "mien": 4757,
      "onda": 4758,
      "ĠMilan": 4759,
      "huy": 4760,
      "ĠApple": 4761,
      "Ġtre": 4762,
      "ĠFLC": 4763,
      "ĠhÃł": 4764,
      "ĠTuyáº¿n": 4765,
      "ÌĽÌī": 4766,
      "ĠchÃŃn": 4767,
      "ĠkhÃ©p": 4768,
      "lop": 4769,
      "Tá»ķ": 4770,
      "ĠIS": 4771,
      "ĠHyun": 4772,
      "62": 4773,
      "Ġ57": 4774,
      "ĠCÃ¡n": 4775,
      "ĠSÃ¡u": 4776,
      "ĠtÃª": 4777,
      "Ġdá»Ļi": 4778,
      "ĠthÃ¢m": 4779,
      "ĠBS": 4780,
      "ĠÄĲo": 4781,
      "Ġ=": 4782,
      "áº¢O": 4783,
      "Ġlá»ģ": 4784,
      "Ľn": 4785,
      "táº¡i": 4786,
      "ĠOm": 4787,
      "NhÃ¢n": 4788,
      "ĠlÅ©y": 4789,
      "vung": 4790,
      "ĠthÆ¡m": 4791,
      "ngan": 4792,
      "ĠLÃ²ng": 4793,
      "ĠOanh": 4794,
      "ĠReuters": 4795,
      "cd": 4796,
      "chan": 4797,
      "hiem": 4798,
      "ĠÄĳá»įng": 4799,
      "BHXH": 4800,
      "ĠTM": 4801,
      "HOÃĢ": 4802,
      "Chá»©ng": 4803,
      "ĠÄĳáº¥y": 4804,
      "fe": 4805,
      "ĠTÃ¡o": 4806,
      "61": 4807,
      "ÄĲÃ£": 4808,
      "ĠRáº¥t": 4809,
      "ĠBÃ³ng": 4810,
      "ĠnhÃłng": 4811,
      "Viet": 4812,
      "ĠCáºŃp": 4813,
      "ĠThuáº¿": 4814,
      "Ġxá»ī": 4815,
      "¹m": 4816,
      "NA": 4817,
      "Ġráº¯n": 4818,
      "Bl": 4819,
      "âĢĿ;": 4820,
      "ĠMÆ°á»Ŀng": 4821,
      "Ġkhá»©": 4822,
      "Ġbáº¿": 4823,
      "trao": 4824,
      "ĠSá»¹": 4825,
      "Má»Ĺi": 4826,
      "Ġná»Ľi": 4827,
      "Ġmo": 4828,
      "2025": 4829,
      "ĠVladimir": 4830,
      "Ġhoáº¡n": 4831,
      "Ġ2023": 4832,
      "ĠTa": 4833,
      "PV": 4834,
      "chien": 4835,
      "Æ¯á»": 4836,
      "ĠCB": 4837,
      "CCC": 4838,
      "Ġthuáº§n": 4839,
      "ĠNhu": 4840,
      "bot": 4841,
      "ĠlÃ¢n": 4842,
      "ĠlÆ°á»¡ng": 4843,
      "ĠSang": 4844,
      "ĠngÆ°ng": 4845,
      "ĠkhÃ³i": 4846,
      "?,": 4847,
      "ĠtiÃª": 4848,
      "Táº¾T": 4849,
      "Ġaxit": 4850,
      "mai": 4851,
      "%)": 4852,
      "illa": 4853,
      "manh": 4854,
      "ĠkhoÄĥn": 4855,
      "ĠluÃ¢n": 4856,
      "vaccine": 4857,
      "ĠbÃ¡t": 4858,
      "ĠDuyÃªn": 4859,
      "bia": 4860,
      "ĠsÆ¡n": 4861,
      "SARS": 4862,
      "oto": 4863,
      "pt": 4864,
      "ovic": 4865,
      "ÄĤNG": 4866,
      "ĠÄĲi": 4867,
      "mau": 4868,
      "Ġmá»ĵ": 4869,
      "ĠbÃ¬": 4870,
      "art": 4871,
      "ĠÄĳÃ³i": 4872,
      "ash": 4873,
      "orn": 4874,
      "PP": 4875,
      "ĠTokyo": 4876,
      "ĠviÃª": 4877,
      "ĠNhÃ¢m": 4878,
      "ĠphÃ¡i": 4879,
      "ĠÃļ": 4880,
      "Ġ58": 4881,
      "Ġngá»£i": 4882,
      "ĠNhá»Ŀ": 4883,
      "sai": 4884,
      "ÄĲá»ĳi": 4885,
      "ĠGiá»Ŀ": 4886,
      "gon": 4887,
      "Ġsum": 4888,
      "á»¯a": 4889,
      "Bu": 4890,
      "ĠYouTu": 4891,
      "ko": 4892,
      "Äĳiá»ĥm": 4893,
      "ya": 4894,
      "Ġsan": 4895,
      "ĠGa": 4896,
      "ĠTho": 4897,
      "2013": 4898,
      "ĠTáºłI": 4899,
      "Ġno": 4900,
      "TW": 4901,
      "Ġ61": 4902,
      "biet": 4903,
      "ĠMourinho": 4904,
      "ĠlÃŃt": 4905,
      "ÃĻNG": 4906,
      "MÆ°a": 4907,
      "ĠLiga": 4908,
      "DL": 4909,
      "ĠthÃª": 4910,
      "ĠTháº§y": 4911,
      "ĠXanh": 4912,
      "ĠKa": 4913,
      "ĠÄĳÃ¡y": 4914,
      "Ġlá»ĵng": 4915,
      "Vi": 4916,
      "ĠPer": 4917,
      "Ġtháº¯n": 4918,
      "ts": 4919,
      "ĠchÃ©m": 4920,
      "ĠbÄĥn": 4921,
      "ÄĲiá»ĩn": 4922,
      "ĠvÃª": 4923,
      "Ġthoáº£": 4924,
      "ĠquÃ£ng": 4925,
      "mi": 4926,
      "ola": 4927,
      "ĠPhÃºt": 4928,
      "ĠQuáº¿": 4929,
      "ĠMin": 4930,
      "Em": 4931,
      "Ġvang": 4932,
      "Ġcá»įc": 4933,
      "World": 4934,
      "xet": 4935,
      "ĠÄĲan": 4936,
      "ĠÃło": 4937,
      "sáº½": 4938,
      "nghiem": 4939,
      "ĠOmicron": 4940,
      "ĠFed": 4941,
      "Cao": 4942,
      "ĠÄĳÃ¢": 4943,
      "ĠBCH": 4944,
      "hy": 4945,
      "ĠLÄ©nh": 4946,
      "atar": 4947,
      "Má»Ľi": 4948,
      "ÄĲáº¿n": 4949,
      "ĠWe": 4950,
      "ĠquyÃªn": 4951,
      "ĠTá»Ŀ": 4952,
      "ĠtÃŃm": 4953,
      "Ġcai": 4954,
      "ĠBlu": 4955,
      "ĠSao": 4956,
      "ĠcáºŃy": 4957,
      "ĠBÃłn": 4958,
      "ĠTráº£": 4959,
      "ĠCá»ķng": 4960,
      "ĠkhoÃ¡c": 4961,
      "Ġtháº¯t": 4962,
      "roi": 4963,
      "quyet": 4964,
      "Ġprotein": 4965,
      "ĠCSÄĲT": 4966,
      "71": 4967,
      "Ġthá»Ńa": 4968,
      "Ġ2008": 4969,
      "XÃ©t": 4970,
      "ĠVy": 4971,
      "ens": 4972,
      "Æ°á»Ľt": 4973,
      "ĠnÃ©m": 4974,
      "chuan": 4975,
      "LÃłm": 4976,
      "Ġheo": 4977,
      "pe": 4978,
      "bu": 4979,
      "ĠMer": 4980,
      "ĠÃĿ": 4981,
      "ribank": 4982,
      "gu": 4983,
      "ĠVina": 4984,
      "Ġná»Ł": 4985,
      "ĠXin": 4986,
      "Diá»ħn": 4987,
      "ĠKháº¯c": 4988,
      "Ġvoi": 4989,
      "Cá»¥c": 4990,
      "ĠlÃ´ng": 4991,
      "hoang": 4992,
      "ĠkhÃ¡nh": 4993,
      "Ġvá»Ļi": 4994,
      "ĠMu": 4995,
      "xem": 4996,
      "ĠChinh": 4997,
      "Tuy": 4998,
      "nhu": 4999,
      "Ġ98": 5000,
      "tau": 5001,
      ",\"\"\"": 5002,
      "ĠMiá»ģn": 5003,
      "Hai": 5004,
      "ĠSamsung": 5005,
      "ĠÃ¡m": 5006,
      "Long": 5007,
      "Ġ110": 5008,
      "Ãºy": 5009,
      "ĠVáº¡n": 5010,
      "thuá»Ļc": 5011,
      "tranh": 5012,
      "ĠPhá»ķ": 5013,
      "ĠCHI": 5014,
      "VIá»ĨT": 5015,
      "ĠCT": 5016,
      "ĠGiÃªng": 5017,
      "Ġtáº©y": 5018,
      "Ġme": 5019,
      "ĠHiá»ĥn": 5020,
      "witter": 5021,
      "Ġvo": 5022,
      "ĠIraq": 5023,
      "nguy": 5024,
      "giÃ¡": 5025,
      "3030": 5026,
      "áº¤": 5027,
      "Ġhá»ĳ": 5028,
      "Mai": 5029,
      "Ġá»ĳc": 5030,
      "ĠDan": 5031,
      "Trao": 5032,
      "ĠGDP": 5033,
      "ĠFC": 5034,
      "Ġngáº·t": 5035,
      "ĠhiÃª": 5036,
      "Ġ53": 5037,
      "ĠHCM": 5038,
      "ĠTÆ¯": 5039,
      "XuÃ¢n": 5040,
      "BÃŃch": 5041,
      "lanh": 5042,
      "ale": 5043,
      "ĠSÄ©": 5044,
      "ĠCÆ°Æ¡ng": 5045,
      "ĠHam": 5046,
      "Ġhá»įng": 5047,
      "tisak": 5048,
      "Chiáº¿n": 5049,
      "ĠNews": 5050,
      "ĠYouTube": 5051,
      "Ġtháº¯c": 5052,
      "ĠParis": 5053,
      "ĠBen": 5054,
      "ĠÄĳuá»ĳi": 5055,
      "ChÆ°Æ¡ng": 5056,
      "Kim": 5057,
      "Ġhá»ĵn": 5058,
      "Song": 5059,
      "hoat": 5060,
      "á»Į": 5061,
      "Háº¡": 5062,
      "21000": 5063,
      "land": 5064,
      "chet": 5065,
      "ĠLáº¡t": 5066,
      "ati": 5067,
      "ĠÃ¡c": 5068,
      "izer": 5069,
      "hoan": 5070,
      "ĠÄĳá»ĩ": 5071,
      "ĠCháº¡p": 5072,
      "ĠxÃ´ng": 5073,
      "ĠlÃ£o": 5074,
      "ĠBayern": 5075,
      "ĠXuáº¥t": 5076,
      "ĠTuáº§n": 5077,
      "Æ°á»Łi": 5078,
      "ĠsÃ´": 5079,
      "Ġ85": 5080,
      "ĠKH": 5081,
      "ĠChÃ¢n": 5082,
      "Triá»ĩu": 5083,
      "ĠNASA": 5084,
      "303088": 5085,
      "21000303088": 5086,
      "HÆ°Æ¡ng": 5087,
      "fizer": 5088,
      "cai": 5089,
      "Ġ0021000303088": 5090,
      "ock": 5091,
      "ĠNGUYá»ĦN": 5092,
      "KH": 5093,
      "Ġngá»Ļt": 5094,
      "Ġngá»įn": 5095,
      "Ġlá»¡": 5096,
      "etico": 5097,
      "ĠmÅ©": 5098,
      "vinh": 5099,
      "ĠHiá»ĥu": 5100,
      ".,": 5101,
      "lÃłm": 5102,
      "QU": 5103,
      "Ġsay": 5104,
      "gba": 5105,
      "Ġkhoanh": 5106,
      "omo": 5107,
      "ĠNÃªn": 5108,
      "ÄĲÃ¡p": 5109,
      "ĠbÃ³n": 5110,
      "bá»ĩnh": 5111,
      "lua": 5112,
      "ĠAli": 5113,
      "jaer": 5114,
      "yota": 5115,
      "Hu": 5116,
      "Linh": 5117,
      "ica": 5118,
      "91": 5119,
      "dap": 5120,
      "tao": 5121,
      "HOÃĢI": 5122,
      "ĠCá»Ńu": 5123,
      "ĠxÃ´": 5124,
      "ĠthoÃ¡ng": 5125,
      ".\",,\"": 5126,
      "ĠGu": 5127,
      "Ġchanh": 5128,
      "ĠMáº§m": 5129,
      "khoáº£ng": 5130,
      "outh": 5131,
      "ĠTháº§n": 5132,
      "giáº£m": 5133,
      "Ġvua": 5134,
      "Ġmáº£ng": 5135,
      "Ãºn": 5136,
      "á»ŀ": 5137,
      "áº±n": 5138,
      "Tá»ī": 5139,
      "tuy": 5140,
      "ĠHÃĻNG": 5141,
      "ĠPal": 5142,
      "ĠSe": 5143,
      "Ġnga": 5144,
      "isa": 5145,
      "ĠCÆ°": 5146,
      "ĠHonda": 5147,
      "Ġnháº¯m": 5148,
      "ĠVKS": 5149,
      "ĠÃĤm": 5150,
      "Ġvá»įt": 5151,
      "%).": 5152,
      "ĠBHTN": 5153,
      "ĠKháº£i": 5154,
      "ĠKhá»ĳi": 5155,
      "ĠÄĲÃªm": 5156,
      "skjaer": 5157,
      "ĠMÃ£": 5158,
      "Ġkhoáº£nh": 5159,
      "ĠÄĳÃ´n": 5160,
      "dy": 5161,
      "thÃłnh": 5162,
      "ĠVáº¥n": 5163,
      "amin": 5164,
      "ĠnÃ£": 5165,
      "Ġbá»ĳn": 5166,
      "ĠBÄĲS": 5167,
      "ĠIV": 5168,
      "Ġxao": 5169,
      "Ġhoáº¡i": 5170,
      "usd": 5171,
      "3000000": 5172,
      "3000000758": 5173,
      "EFA": 5174,
      "ĠtrÃ¢u": 5175,
      "ĠKy": 5176,
      "NguyÃªn": 5177,
      "Ġ113000000758": 5178,
      "TÄĥng": 5179,
      "ĠWHO": 5180,
      "ĠEver": 5181,
      "Ġbá»ıng": 5182,
      "575": 5183,
      "Ġtiá»ĩm": 5184,
      "BiÃªn": 5185,
      "ĠSon": 5186,
      "392327": 5187,
      "ĠThuá»Ļt": 5188,
      "ĠCol": 5189,
      "00011": 5190,
      "tel": 5191,
      "der": 5192,
      "trien": 5193,
      "hay": 5194,
      "ĠTwitter": 5195,
      "TRáº¦N": 5196,
      "Ġngáº¡c": 5197,
      "fa": 5198,
      "ĠKáº¡n": 5199,
      "ĠMas": 5200,
      "ĠRom": 5201,
      "%),": 5202,
      "ĠMáºŃu": 5203,
      "Æ¯T": 5204,
      "22556": 5205,
      "Ġtá»¥ng": 5206,
      "chau": 5207,
      "ĠÄĲÃ¡nh": 5208,
      "uar": 5209,
      "giu": 5210,
      "0001122556": 5211,
      "ĠHÄĲLÄĲ": 5212,
      "ĠQU": 5213,
      "tung": 5214,
      "Ġtiá»ĩc": 5215,
      "Sá»ĳ": 5216,
      "Ġváº¯c": 5217,
      "ĠVal": 5218,
      "ĠKhÃ¡ch": 5219,
      "ĠtrÃ¹m": 5220,
      "ĠTráº¥n": 5221,
      "tletico": 5222,
      "ĠKrÃ´ng": 5223,
      "Ġtru": 5224,
      "Ġ99": 5225,
      "ĠLuÃ¢n": 5226,
      "ĠnÃ´n": 5227,
      "ĠláºŃt": 5228,
      "ĠbáºŃn": 5229,
      "Ninh": 5230,
      "Ġ64": 5231,
      "DN": 5232,
      "ĠÄĳiÃª": 5233,
      "Ġvá»Ł": 5234,
      "39232748": 5235,
      "Ġgáº¡ch": 5236,
      "chat": 5237,
      "756": 5238,
      "ĠUyÃªn": 5239,
      "Ġdá»ĵi": 5240,
      "eor": 5241,
      "ĠFran": 5242,
      "ics": 5243,
      "king": 5244,
      "ĠvÃ¢y": 5245,
      "ĠThiÃªm": 5246,
      "NgÃ¢n": 5247,
      "Ġchinh": 5248,
      "LÆ°Æ¡ng": 5249,
      "ĠBang": 5250,
      "Ġ+,\"['": 5251,
      "ĠkÃ©p": 5252,
      "DA": 5253,
      "Ġ67": 5254,
      "Ġranh": 5255,
      "ĠTCty": 5256,
      "ĠViáº¿t": 5257,
      "ĠcÃºm": 5258,
      "sá»ĳ": 5259,
      "ĠCDC": 5260,
      "Ġxinh": 5261,
      "xico": 5262,
      "Cáº§u": 5263,
      "DÃ¹": 5264,
      "ĠxÃ¡": 5265,
      "ĠGÃ²": 5266,
      "ĠHÄĲXX": 5267,
      "Ġ1241": 5268,
      "605": 5269,
      "cup": 5270,
      "ven": 5271,
      "Ġtriá»ģu": 5272,
      "ĠNÄĥng": 5273,
      "ĠVietjet": 5274,
      "ĠdÃ¡n": 5275,
      "ĠGat": 5276,
      "ĠTráº¡ch": 5277,
      "ĠMiss": 5278,
      "196": 5279,
      "bur": 5280,
      "vá»Ľi": 5281,
      "nen": 5282,
      "Ġbá»ĥ": 5283,
      "Ġkg": 5284,
      "berg": 5285,
      "Ġ12410001122556": 5286,
      "¥n": 5287,
      "Há»Ĺ": 5288,
      "ĠTiÃªu": 5289,
      "ĠPCCC": 5290,
      "Ġvá»ĭnh": 5291,
      "tuan": 5292,
      "ĠHÃłm": 5293,
      "To": 5294,
      "ĠMÃ¹a": 5295,
      "¡i": 5296,
      "á»ĩt": 5297,
      "Ġnáº¿p": 5298,
      "ĠRi": 5299,
      "ĠMáº¹": 5300,
      "cuoi": 5301,
      "CO": 5302,
      "ĠTin": 5303,
      "bin": 5304,
      "Ġ91": 5305,
      "Quy": 5306,
      "tor": 5307,
      "Ġthá»¥c": 5308,
      "ĭt": 5309,
      "ĠgiáºŃn": 5310,
      "br": 5311,
      "Ġnáº£y": 5312,
      "ice": 5313,
      "228": 5314,
      "ĠAlex": 5315,
      "ĠEURO": 5316,
      "Ġcá»¡": 5317,
      "Ġsuá»ĳi": 5318,
      "ĠUS": 5319,
      "á»²": 5320,
      "Ġtruyá»ĩn": 5321,
      "!\",\"": 5322,
      "tot": 5323,
      "ĠchÃ´": 5324,
      "Ġ59": 5325,
      "ĠVÄ©": 5326,
      "ĠMÃ¡t": 5327,
      "ĠMac": 5328,
      "ondon": 5329,
      "613": 5330,
      "á»£": 5331,
      "ĠShin": 5332,
      "Ġthuá»·": 5333,
      "ĠHan": 5334,
      "ĠlÃµi": 5335,
      "Ġthá»§ng": 5336,
      "ĠMus": 5337,
      "que": 5338,
      "ost": 5339,
      "900": 5340,
      "Æ°á»¡i": 5341,
      "trÃªn": 5342,
      "ĠÄĲÃłm": 5343,
      "ĠÄĳÄ©a": 5344,
      "ĠEa": 5345,
      "Ġmáº¿n": 5346,
      "ĠVÃ¹ng": 5347,
      "ĠSen": 5348,
      "CV": 5349,
      "vÃ¹ng": 5350,
      "wa": 5351,
      "ÂłÂłÂłÂłÂłÂłÂłÂł": 5352,
      "ĠYouMe": 5353,
      "CA": 5354,
      "ĠPhá»§": 5355,
      "are": 5356,
      "ĠLá»¥c": 5357,
      "CÃ´": 5358,
      "Ġ92": 5359,
      "Ġxáº¡": 5360,
      "xcÆ¡": 5361,
      "Xuáº¥t": 5362,
      "Ġhiáº¿p": 5363,
      "IAD": 5364,
      "Ġhuyá»ģn": 5365,
      "Ġgolf": 5366,
      "Sao": 5367,
      "ealand": 5368,
      "ĠAPEC": 5369,
      "ox": 5370,
      "áº¾N": 5371,
      "Ġráº¡p": 5372,
      "nhÃł": 5373,
      "ĠÄĳá»į": 5374,
      "ĠÃºy": 5375,
      "ĠHuÃ¢n": 5376,
      "xcÆ¡va": 5377,
      "ĠKong": 5378,
      "Ġcá»ĳc": 5379,
      "linh": 5380,
      "tream": 5381,
      "ATO": 5382,
      "ĠLondon": 5383,
      "ĠMTT": 5384,
      "eymar": 5385,
      "TÃłu": 5386,
      "ĠÄĲam": 5387,
      "ĠMun": 5388,
      "âĢĿ,\"": 5389,
      "ĠnhÃ¢": 5390,
      "ĠHiáº¿n": 5391,
      "ĠHoáº¡t": 5392,
      "ĠGiá»Ľi": 5393,
      "ĠBitcoin": 5394,
      "Ġcáº¯m": 5395,
      "ĠnhiÃª": 5396,
      "ĠTNMT": 5397,
      "ĠQatar": 5398,
      "Ġpháº¿": 5399,
      "old": 5400,
      "gap": 5401,
      "ĠCan": 5402,
      "Äĳá»ĥ": 5403,
      "ĠdÄ©": 5404,
      "Ġalbum": 5405,
      "ĠMTTQ": 5406,
      "ass": 5407,
      "Ġá»¨ng": 5408,
      "ĠXÃ©t": 5409,
      "Ġláº¯c": 5410,
      "ĠTráº»": 5411,
      "ĠPhÃ¢n": 5412,
      "ÄĲá»©c": 5413,
      "dd": 5414,
      "ĠphÃ´": 5415,
      "Phan": 5416,
      "HÃ´m": 5417,
      "Ġfutsal": 5418,
      "thpt": 5419,
      "TX": 5420,
      "ial": 5421,
      "Tá»īnh": 5422,
      "ĠSum": 5423,
      "ĠAng": 5424,
      "ide": 5425,
      "hung": 5426,
      "Ġvie": 5427,
      "VÆ°Æ¡ng": 5428,
      "Nghá»ĭ": 5429,
      "Ġthá»ģm": 5430,
      "há»Łi": 5431,
      "ĠUB": 5432,
      "khá»§ng": 5433,
      "ĠPH": 5434,
      "AM": 5435,
      "ĠchÃª": 5436,
      "Ġlá»Ļn": 5437,
      "ĠNhÃ£": 5438,
      "ĠngÆ°Æ¡": 5439,
      "©u": 5440,
      "ngh": 5441,
      "ĠCung": 5442,
      "use": 5443,
      "VÄ©nh": 5444,
      "Quá»¹": 5445,
      "ĠHong": 5446,
      "ĠSiÃªu": 5447,
      "Ġthá»į": 5448,
      "Tham": 5449,
      "dep": 5450,
      "SCL": 5451,
      "ĠVá»«a": 5452,
      "ĠJor": 5453,
      "Ġthá»ķi": 5454,
      "Ġtháº¥u": 5455,
      "iá»ģng": 5456,
      "iel": 5457,
      "Äĳá»ĳi": 5458,
      "Ġváº¡n": 5459,
      "Ġdáº¹p": 5460,
      "ĠPe": 5461,
      "HUYÃĬN": 5462,
      "Ġviá»ĩt": 5463,
      "ĠBi": 5464,
      "Ġ180": 5465,
      "Ġnáº¥m": 5466,
      "ĠOs": 5467,
      "ĠAgribank": 5468,
      "HÃłn": 5469,
      "ĠPfizer": 5470,
      "NhÆ°": 5471,
      "ĠmÃ²n": 5472,
      "ĠHáº§u": 5473,
      "Ma": 5474,
      "ĠPep": 5475,
      "khau": 5476,
      "ghan": 5477,
      "Ġchuá»Ļt": 5478,
      "104": 5479,
      "Ġ96": 5480,
      "ĠJack": 5481,
      "ĠDU": 5482,
      "khien": 5483,
      "ĠBáº£ng": 5484,
      "ĠKo": 5485,
      "Lá»ħ": 5486,
      "ĠSolskjaer": 5487,
      "ĠnghÃªnh": 5488,
      "ĳc": 5489,
      "Ġchuá»ĳi": 5490,
      "ĠdÆ°a": 5491,
      "ft": 5492,
      "Ġ2000": 5493,
      "--": 5494,
      "ÄĲÃ¡nh": 5495,
      "ĠPogba": 5496,
      "trÃº": 5497,
      "Nhiá»ĩt": 5498,
      "ghi": 5499,
      "ĠMobi": 5500,
      "Kho": 5501,
      "ĠCom": 5502,
      "Ġeuro": 5503,
      "khoa": 5504,
      "ĠmÃ³ng": 5505,
      "Äĳá»ģ": 5506,
      "ĠDiá»ĩp": 5507,
      "ub": 5508,
      "hip": 5509,
      "tieng": 5510,
      "ĠMÃ¡txcÆ¡va": 5511,
      "ĠNÃºi": 5512,
      "ĠxÃ´n": 5513,
      "dot": 5514,
      "Bá»ĭ": 5515,
      "Ġcalo": 5516,
      "ĠbÆ°u": 5517,
      "Ġlau": 5518,
      "ÂłĠĠ": 5519,
      "Trang": 5520,
      "ĠAb": 5521,
      "ĠTU": 5522,
      "ĠVHTT": 5523,
      "ĠQuáº£": 5524,
      "Ġ2009": 5525,
      "ĠNháº¡": 5526,
      "phep": 5527,
      "518": 5528,
      "ĠNguá»ĵn": 5529,
      "EU": 5530,
      "ĠTriá»ĥn": 5531,
      "ght": 5532,
      "Ġkiá»ĩt": 5533,
      "ĠCháº¥t": 5534,
      "82": 5535,
      "ĠKm": 5536,
      "Ġtáº§n": 5537,
      "tram": 5538,
      "ĠbiÃª": 5539,
      "Ġ130": 5540,
      "SND": 5541,
      "ĠNguy": 5542,
      "Ġthá»ĭnh": 5543,
      "Ġbar": 5544,
      "Huáº¥n": 5545,
      "Sinh": 5546,
      "ĠÄĳá»ĵi": 5547,
      "Ì£ÌĤ": 5548,
      "Li": 5549,
      "thon": 5550,
      "ĠPr": 5551,
      "Ġnháº«n": 5552,
      "Ngay": 5553,
      "TÃłi": 5554,
      "ĠHS": 5555,
      "Ġlogi": 5556,
      "hom": 5557,
      "ĠTá»©": 5558,
      "ĠTae": 5559,
      "thÃ": 5560,
      "Ġmá»Ŀ": 5561,
      "Ġbá»įc": 5562,
      "Du": 5563,
      "ĠCá»§": 5564,
      "BuÃ´n": 5565,
      "ĠtrÆ°Æ¡": 5566,
      "ĠPro": 5567,
      "ĠPhÃ¹": 5568,
      "Ġruá»Ļng": 5569,
      "Ġchá»Ń": 5570,
      "Ġchim": 5571,
      "ĠSÃ¢n": 5572,
      "bÃ¡n": 5573,
      "tÆ°Æ¡ng": 5574,
      "ile": 5575,
      "ÄĲÃ³": 5576,
      "ĠMexico": 5577,
      "Ġhá»Ł": 5578,
      "ĠAtletico": 5579,
      "ĠRT": 5580,
      "ari": 5581,
      "ĠÄĳáº¯n": 5582,
      "Ġnhan": 5583,
      "ĠbÃºt": 5584,
      "phim": 5585,
      "erna": 5586,
      "ĠBrun": 5587,
      "muc": 5588,
      "Ġláº·p": 5589,
      "ĠbÃ´ng": 5590,
      "ĠNghiÃªm": 5591,
      "thiet": 5592,
      "phá»": 5593,
      "ĠXI": 5594,
      "ĠZealand": 5595,
      "ThÃ¹y": 5596,
      "Nghá»ī": 5597,
      "quyen": 5598,
      "loai": 5599,
      "Ġ88": 5600,
      "Ġ97": 5601,
      "dia": 5602,
      "ĠCro": 5603,
      "Ġná»©t": 5604,
      "ĠvÃ¢": 5605,
      "lieu": 5606,
      "áº¤N": 5607,
      "Ġpin": 5608,
      "ĠcháºŃt": 5609,
      "ĠmÃłng": 5610,
      "Ġtrá»ħ": 5611,
      "tru": 5612,
      "ose": 5613,
      "Ġsiáº¿t": 5614,
      "ÃĶNG": 5615,
      "Lá»£i": 5616,
      "©o": 5617,
      "ĠBill": 5618,
      "ĠSte": 5619,
      "giup": 5620,
      "ĠxÃł": 5621,
      "Chung": 5622,
      "Ġtáº¡ng": 5623,
      "ĠngÃło": 5624,
      "ĠKiatisak": 5625,
      "ĠToyota": 5626,
      "Ġchuy": 5627,
      "ĠtÃºng": 5628,
      "wei": 5629,
      "Ġrao": 5630,
      "ata": 5631,
      "virus": 5632,
      "thieu": 5633,
      "The": 5634,
      "risti": 5635,
      "Ġ350": 5636,
      "ĠTimes": 5637,
      "á»«ng": 5638,
      "ary": 5639,
      "SE": 5640,
      "VÃło": 5641,
      "SÆ¡n": 5642,
      "chiáº¿m": 5643,
      "Ġnu": 5644,
      "Äĳá»ĵng": 5645,
      "olo": 5646,
      "ĠÄĳiá»ģn": 5647,
      "ĠJe": 5648,
      "103": 5649,
      "ĠgÃ¡c": 5650,
      "ĠMon": 5651,
      "ĠXIV": 5652,
      "toc": 5653,
      "ĠcÃ³c": 5654,
      "tiem": 5655,
      "ĠGrand": 5656,
      "Ġdá»ĳi": 5657,
      "uardi": 5658,
      "ĠNeymar": 5659,
      "ĠVá»ĩ": 5660,
      "huyen": 5661,
      "ĠEx": 5662,
      "ĠGeor": 5663,
      "ĠAf": 5664,
      "ĠcÃºp": 5665,
      "ĠEl": 5666,
      "ĠSE": 5667,
      "QuÃ¢n": 5668,
      "Ġim": 5669,
      "ĠtÆ°á»Ľc": 5670,
      "ĠBe": 5671,
      "ĠBá»ĳ": 5672,
      "ĠKe": 5673,
      "Ġdá»Ł": 5674,
      "Ġcáº¡n": 5675,
      "ĠchÆ°": 5676,
      "ĠtÃ¡ng": 5677,
      "ĠTK": 5678,
      "mart": 5679,
      "ĠNgá»į": 5680,
      "ĠRe": 5681,
      "CÆ°á»Ŀng": 5682,
      "ĠKar": 5683,
      "Ġdá»ĩt": 5684,
      "TVS": 5685,
      "Ġde": 5686,
      "ĠQR": 5687,
      "áº«m": 5688,
      "Ġnghiáº¹": 5689,
      "ĠTUáº¤N": 5690,
      "ĠBÆ°u": 5691,
      "HÆ¡n": 5692,
      "81": 5693,
      "ĠFor": 5694,
      "Triá»ģu": 5695,
      "nho": 5696,
      "ĠKhuyáº¿n": 5697,
      "Ġloa": 5698,
      "ĠNSND": 5699,
      "Ġcar": 5700,
      "ĠDiá»ĩu": 5701,
      "ĠPhu": 5702,
      "QL": 5703,
      "TÃ¢y": 5704,
      "ĠNATO": 5705,
      "ĠBÃłng": 5706,
      "ĠCHIáº¾N": 5707,
      "\"\"-": 5708,
      "ĠKhanh": 5709,
      "Ġ900": 5710,
      "ĠBuÃ´n": 5711,
      "gai": 5712,
      "ĠDá»ĩt": 5713,
      "ĠKiá»ĩt": 5714,
      "®NG": 5715,
      "ĠFDI": 5716,
      "Ġlá»ĳp": 5717,
      "ĠmÃ¢m": 5718,
      "ĠHIV": 5719,
      "ĠNhÆ°á»¡ng": 5720,
      "ĠÃĶ": 5721,
      "ĠÄĲBSCL": 5722,
      "ĠUEFA": 5723,
      "Ġháº¡ch": 5724,
      "nien": 5725,
      "ĠWest": 5726,
      "ĠHay": 5727,
      "ĠÄĲÄĤNG": 5728,
      "ĠHÃ¢n": 5729,
      "ĠMc": 5730,
      "Ġgiá»įt": 5731,
      "ĠlÃ´i": 5732,
      "ĠMor": 5733,
      "ten": 5734,
      "Ġkha": 5735,
      "Ġof": 5736,
      "IS": 5737,
      "hen": 5738,
      "MÃ¡y": 5739,
      "Mo": 5740,
      "Virus": 5741,
      "tá»±": 5742,
      "ĠCNN": 5743,
      "dem": 5744,
      "eren": 5745,
      "Huyá»ĩn": 5746,
      "má»": 5747,
      "Ġbáº¯p": 5748,
      "ĠmÃ´tÃ´": 5749,
      "ĠvÃłnh": 5750,
      "ĠhoÃłnh": 5751,
      "ĠAndr": 5752,
      "Ġ66": 5753,
      "Ġ81": 5754,
      "ĠTech": 5755,
      "ĠViá»ħn": 5756,
      "oid": 5757,
      "ĠHD": 5758,
      "that": 5759,
      "ele": 5760,
      "Ġchá»Ńi": 5761,
      "ĠMÃª": 5762,
      "ĠTrá»Ŀi": 5763,
      "bapp": 5764,
      "Ġmen": 5765,
      "TrÃªn": 5766,
      "808": 5767,
      "eneca": 5768,
      "ĭn": 5769,
      "zon": 5770,
      "Giao": 5771,
      "2023": 5772,
      "Ġnhá»įc": 5773,
      "vá»ģ": 5774,
      "ĠMark": 5775,
      "ĠNhÃłn": 5776,
      "Ľc": 5777,
      "Ġfacebook": 5778,
      "ĠÃļc": 5779,
      "yen": 5780,
      "ĠsÃ¡p": 5781,
      "ĠDO": 5782,
      "NháºŃn": 5783,
      "Ġthe": 5784,
      "ghanistan": 5785,
      "Ar": 5786,
      "ĠCÃ¡": 5787,
      "bappe": 5788,
      "ĠxÃ¡t": 5789,
      "ĠMomo": 5790,
      "ĠchÃ©o": 5791,
      "Ġtie": 5792,
      "ĠgÅ©i": 5793,
      "ling": 5794,
      "ĠPhiÃªn": 5795,
      "icester": 5796,
      "ĠVÄĲ": 5797,
      "793": 5798,
      "ĠNHNN": 5799,
      "CÃ¢u": 5800,
      "iku": 5801,
      "Tháº£o": 5802,
      "ngu": 5803,
      "UNG": 5804,
      "ĠtÃ¡t": 5805,
      "ĠGuardi": 5806,
      "ĠYÃªu": 5807,
      "HÃłnh": 5808,
      "oz": 5809,
      "vÃ²ng": 5810,
      "ational": 5811,
      "ĠhÃ¡i": 5812,
      "ĠASIAD": 5813,
      "idane": 5814,
      "HÃ²a": 5815,
      "ĠdÅ©ng": 5816,
      "ĠMá»Ļc": 5817,
      "Ġhiáº¿u": 5818,
      "NgoÃłi": 5819,
      "nganh": 5820,
      "Ġmáº»": 5821,
      "aul": 5822,
      "ĠMÃ¡i": 5823,
      "GiÃ¡m": 5824,
      "ÄĳÆ°á»Ŀng": 5825,
      "ĠnÃłng": 5826,
      "ĠchÃ©p": 5827,
      "FTA": 5828,
      "Ġneo": 5829,
      "Ġ86": 5830,
      "chá»ī": 5831,
      "ĠGiai": 5832,
      "dá»±": 5833,
      "Ġquá»µ": 5834,
      "ĠsÃºc": 5835,
      "KiÃªn": 5836,
      "Ġdá»ĭu": 5837,
      "TÃ¢n": 5838,
      "Ġkhe": 5839,
      "ĠChá»įn": 5840,
      "league": 5841,
      "ĠBÄĥng": 5842,
      "Ġmá»¥n": 5843,
      "Ġtháº¡ch": 5844,
      "ĠÄĲáº£o": 5845,
      "Ġ69": 5846,
      "Ġpho": 5847,
      "ĠGhi": 5848,
      "Ġ73": 5849,
      "chÆ°a": 5850,
      "ĠKpop": 5851,
      "urn": 5852,
      "ĠVá»ĭnh": 5853,
      "tuáº§n": 5854,
      "ĠMunich": 5855,
      "ĠCÄĲV": 5856,
      "ooth": 5857,
      "giáº£i": 5858,
      "nik": 5859,
      "gui": 5860,
      "Ġse": 5861,
      "TÆ°á»Ŀng": 5862,
      "ĠVen": 5863,
      "TiÃªm": 5864,
      "mund": 5865,
      "Ġmá»įc": 5866,
      "ĠchÃºa": 5867,
      "ĠxÃ¡ch": 5868,
      "leiku": 5869,
      "yd": 5870,
      "ĠÆ°a": 5871,
      "Ġ108": 5872,
      "ĠCuba": 5873,
      "Khai": 5874,
      "ĠnháºŃu": 5875,
      "ĠBáº¯t": 5876,
      "ĠÄĳÃ²n": 5877,
      "vat": 5878,
      "ĠÄĳÃłnh": 5879,
      "Ġcay": 5880,
      "baba": 5881,
      "CK": 5882,
      "Ġkhan": 5883,
      "thua": 5884,
      "thuoc": 5885,
      "ĠlÃŃnh": 5886,
      "Uá»²": 5887,
      "Ġrá»¡": 5888,
      "Ġ1990": 5889,
      "ĠxÃ³t": 5890,
      "ĠPhim": 5891,
      "ĠdÃło": 5892,
      "ĠxÆ°ng": 5893,
      "ĠGiÃ¡p": 5894,
      "oli": 5895,
      "Ġkhoai": 5896,
      "ney": 5897,
      "ĠmÃŃ": 5898,
      "150": 5899,
      "car": 5900,
      "sap": 5901,
      "Ġbáº¹": 5902,
      ":\",\"": 5903,
      "ĠDelta": 5904,
      "Ġsoi": 5905,
      "ĠHáº¡t": 5906,
      "Ġbá»©t": 5907,
      "pper": 5908,
      "EL": 5909,
      "ĠTÃ¬m": 5910,
      "ĠKhá»Łi": 5911,
      "bon": 5912,
      "Ġmáº¡n": 5913,
      "Ngoáº¡i": 5914,
      "etooth": 5915,
      "PA": 5916,
      "toa": 5917,
      "ward": 5918,
      "ĠTuáº¥t": 5919,
      "ĠCap": 5920,
      "ĠTá»Ľi": 5921,
      "BÄĲ": 5922,
      "ĠNSÆ¯T": 5923,
      "Ġnho": 5924,
      "ĠÄĳáº¿m": 5925,
      "Lá»«a": 5926,
      "lopp": 5927,
      "2756": 5928,
      "Ġ74": 5929,
      "¦ng": 5930,
      "Ġrung": 5931,
      "page": 5932,
      "ĠbuÃ´ng": 5933,
      "Huáº¿": 5934,
      "lang": 5935,
      "Ãļ": 5936,
      "ĠÄĳÃºc": 5937,
      "Äĳi": 5938,
      "ĠCáº£m": 5939,
      "Ġhot": 5940,
      "Ġtour": 5941,
      "ICE": 5942,
      "Ġquyá»ĥn": 5943,
      "ĠRos": 5944,
      "áº½n": 5945,
      "aka": 5946,
      "Ġshowbiz": 5947,
      "¹i": 5948,
      "Ġtá»ĵi": 5949,
      "XÃ¢y": 5950,
      "39232756": 5951,
      "Ġte": 5952,
      "Táº¥m": 5953,
      "cat": 5954,
      "ĠlÄĥng": 5955,
      "á»¦y": 5956,
      "ĠthÆ°a": 5957,
      "Ġkáº½": 5958,
      "ĠChÃº": 5959,
      "ĠSouth": 5960,
      "ĠWal": 5961,
      "ĠVan": 5962,
      "thá»ĭ": 5963,
      "cÃ¡ch": 5964,
      "ler": 5965,
      "Ġdáº£i": 5966,
      "Phá»¥": 5967,
      "ternet": 5968,
      "ben": 5969,
      "ĠTÃ¡c": 5970,
      "cuc": 5971,
      "ĠSi": 5972,
      "CDC": 5973,
      "Ġgá»¥c": 5974,
      "ĠHyundai": 5975,
      "ome": 5976,
      "Ġ.\",\"": 5977,
      "Ġhiáº¹": 5978,
      "Ġlives": 5979,
      "nhá»¯ng": 5980,
      "000196": 5981,
      "ĠTe": 5982,
      "Ġchay": 5983,
      "Ġ115000196": 5984,
      "Ġ115000196228": 5985,
      "ĠATVS": 5986,
      "''": 5987,
      "Máº·c": 5988,
      "ĠÆ¡": 5989,
      "Ká»·": 5990,
      "ĠkhÃ©o": 5991,
      "ĠGre": 5992,
      "ĠLá»Ļ": 5993,
      "Ġ79": 5994,
      "ĠOai": 5995,
      "ĠTMCP": 5996,
      "Donald": 5997,
      "ars": 5998,
      "ĠBer": 5999,
      "ĠcÃ¡p": 6000,
      "ĠATM": 6001,
      "Ġ71": 6002,
      "ker": 6003,
      "ĠTáº¡": 6004,
      "ĠKing": 6005,
      "ĠCha": 6006,
      "top": 6007,
      "fford": 6008,
      "ĠmÄĥng": 6009,
      "ED": 6010,
      "ĠAngel": 6011,
      "ÄĲH": 6012,
      "ĠchÃ¨": 6013,
      "ĠxÃŃch": 6014,
      "FP": 6015,
      "ĠTháº¥y": 6016,
      "ĠÄĳáº§m": 6017,
      "ĠSh": 6018,
      "ĠLD": 6019,
      "Ġdá»«a": 6020,
      "uawei": 6021,
      "ChÃ¡y": 6022,
      "ĠBluetooth": 6023,
      "wood": 6024,
      "ĠJae": 6025,
      "loat": 6026,
      "ĠBáº£y": 6027,
      "thuy": 6028,
      "Ġ1900": 6029,
      "ilk": 6030,
      "Ġkem": 6031,
      "ĠXÃ´": 6032,
      "ĠÄĳuÃ´i": 6033,
      "tron": 6034,
      "ĠlÃª": 6035,
      "ĠthÃ¡p": 6036,
      "Ã©n": 6037,
      "Ġ89": 6038,
      "5579": 6039,
      "ĠTháº¥t": 6040,
      "ĠLÃ²": 6041,
      "Ġrá»ī": 6042,
      "ny": 6043,
      "ger": 6044,
      "III": 6045,
      "Ġkhoe": 6046,
      "ĠnÆ°á»Ľng": 6047,
      "Premier": 6048,
      "ĠÄĳáº¡c": 6049,
      "NE": 6050,
      "Tiáº¿p": 6051,
      "ĠCá»ĳ": 6052,
      "ĠMáº¡ch": 6053,
      "Ġná»¥": 6054,
      "Ġtuyáº¿t": 6055,
      "ĠHÃ£ng": 6056,
      "Ġmanh": 6057,
      "goi": 6058,
      "ĠMbappe": 6059,
      "Ġsá»£i": 6060,
      "Ġoan": 6061,
      "TAM": 6062,
      "áº¬": 6063,
      "thap": 6064,
      "ĠDiá»ħm": 6065,
      "ĠĠĠĠĠ": 6066,
      "Ġ100575": 6067,
      "Ġ1005755579": 6068,
      "ĠKhÆ°Æ¡ng": 6069,
      "chá»§": 6070,
      "atia": 6071,
      "ĠnghiÃªng": 6072,
      "Mua": 6073,
      "WHO": 6074,
      "Äĳáº¡i": 6075,
      "Giáº£m": 6076,
      "Ġhang": 6077,
      "LÃło": 6078,
      "Ġtoa": 6079,
      "ĠBluezone": 6080,
      "jok": 6081,
      "Ġ''": 6082,
      "esterol": 6083,
      "Ġnghiá»ĩt": 6084,
      "cuong": 6085,
      "Ġphiá»ģn": 6086,
      "truyen": 6087,
      "AI": 6088,
      "Gian": 6089,
      "ortmund": 6090,
      "ĠAstra": 6091,
      "ĠNiÃª": 6092,
      "ĠChÃºc": 6093,
      "Ġbo": 6094,
      "Ġquá»³": 6095,
      "Ġbá»ĵn": 6096,
      "tá»ķ": 6097,
      "Ġgiáº·t": 6098,
      "ĠZidane": 6099,
      "ĠCá»±u": 6100,
      "ĠRes": 6101,
      "ĠEuropa": 6102,
      "ĠEr": 6103,
      "ura": 6104,
      "Ġ1982": 6105,
      "SI": 6106,
      "ĠEn": 6107,
      "ĠThá»Ľi": 6108,
      "bau": 6109,
      "Ġ77": 6110,
      "Ġ140": 6111,
      "ĠTHáº¢O": 6112,
      "ĠVPF": 6113,
      "Ġ160": 6114,
      "ĠOld": 6115,
      "jokovic": 6116,
      "ĠHá»£i": 6117,
      "ĠvÆ°á»£ng": 6118,
      "Ngh": 6119,
      "Ġ2007": 6120,
      "ĠRON": 6121,
      "oáº¡n": 6122,
      "olero": 6123,
      "ĠBáº§u": 6124,
      "ĠPhá»ĳ": 6125,
      "choi": 6126,
      "SiÃªu": 6127,
      "muon": 6128,
      "park": 6129,
      "BP": 6130,
      "ji": 6131,
      "ĠQuÃ¡n": 6132,
      "Ġngháº½n": 6133,
      "Ġ2003": 6134,
      "bert": 6135,
      "nhom": 6136,
      "arl": 6137,
      "ĠDá»ĭp": 6138,
      "ĠÄĳie": 6139,
      "Ġkhá»ĳc": 6140,
      "ĠQUÃĤN": 6141,
      "ĠbÃ´": 6142,
      "hong": 6143,
      "Ġrá»±c": 6144,
      "ĠnÃ©n": 6145,
      "gram": 6146,
      "LÃ¢m": 6147,
      "val": 6148,
      "ĠChan": 6149,
      "ĠchÃ¡n": 6150,
      "ĠMáº«u": 6151,
      "ĠcÃ´n": 6152,
      "Ġchip": 6153,
      "Ġ76": 6154,
      "ĠTrafford": 6155,
      "phapluat": 6156,
      "TráºŃn": 6157,
      "vuot": 6158,
      "tube": 6159,
      "huu": 6160,
      "ThÆ°Æ¡ng": 6161,
      "THEO": 6162,
      "ĠTrÃºc": 6163,
      "thien": 6164,
      "ĠKlopp": 6165,
      "hat": 6166,
      "ĠJordan": 6167,
      "eta": 6168,
      "60559": 6169,
      "xuan": 6170,
      "aco": 6171,
      "khac": 6172,
      "Ġlá»Ļi": 6173,
      "Ġnuá»ĳi": 6174,
      "ĠCR": 6175,
      "ĠÄĲá»ķi": 6176,
      "ĠChiáº¿c": 6177,
      "Fone": 6178,
      "wn": 6179,
      "Ġtháº¥m": 6180,
      "Ġ93": 6181,
      "61360559": 6182,
      "giua": 6183,
      "CÄĥn": 6184,
      "Ġtá»ıi": 6185,
      "ĠkhÃ¡i": 6186,
      "ĠFlor": 6187,
      "ĠVietinBank": 6188,
      "ĠAfghanistan": 6189,
      "Ġrá»Ļn": 6190,
      "Ġ0961360559": 6191,
      "ĠrÃ¡p": 6192,
      "VÅ©ng": 6193,
      "ĠMod": 6194,
      "lesterol": 6195,
      "Ġbá»Ļc": 6196,
      "ĠVHTTDL": 6197,
      "ander": 6198,
      "ĠCháº¿": 6199,
      "ield": 6200,
      "veen": 6201,
      "Ġbáº¥m": 6202,
      "truy": 6203,
      "áº¢nh": 6204,
      "TuyÃªn": 6205,
      "nhÆ°": 6206,
      "gá»ĵm": 6207,
      "ĠCáºŃn": 6208,
      "Æ°Æ¡m": 6209,
      "Ba": 6210,
      "ĠLÆ°á»£ng": 6211,
      "Quang": 6212,
      "ĠYoung": 6213,
      "ĠÄĲá»ĵ": 6214,
      "ĠMel": 6215,
      "thuan": 6216,
      "SEA": 6217,
      "ss": 6218,
      "xac": 6219,
      "ĠFPT": 6220,
      "phÃ²ng": 6221,
      "Zeneca": 6222,
      "vanphapluat": 6223,
      "Cá»ķ": 6224,
      "uela": 6225,
      "mu": 6226,
      "vay": 6227,
      "Chuyá»ĥn": 6228,
      "ĠNgÆ°á»£c": 6229,
      "sá»Ńa": 6230,
      "ĠTri": 6231,
      "bá»ĭ": 6232,
      "ĠSports": 6233,
      "ĠÄĳá»ĩm": 6234,
      "ĠnhÆ°á»Ŀng": 6235,
      "Ġkhoan": 6236,
      "Ġtuvanphapluat": 6237,
      "ĠNgÅ©": 6238,
      "táº¥n": 6239,
      "ĠCM": 6240,
      "ĠLÄĥng": 6241,
      "ĠÃºng": 6242,
      "Ġtáº¡": 6243,
      "ĠTinh": 6244,
      "Xá»Ń": 6245,
      "ĠMÆ°á»Ŀi": 6246,
      "Ġvan": 6247,
      "ĠIns": 6248,
      "utnik": 6249,
      "vua": 6250,
      "ezuela": 6251,
      "thue": 6252,
      "ĠNis": 6253,
      "erenveen": 6254,
      "Cá»±u": 6255,
      "lau": 6256,
      "2012": 6257,
      "ĠGo": 6258,
      "ĠngÃ³n": 6259,
      "wer": 6260,
      "ĠAlibaba": 6261,
      "ans": 6262,
      "Ġkáº¹o": 6263,
      "ĠcÃ²i": 6264,
      "Ġhuá»·": 6265,
      "YÃªn": 6266,
      "zo": 6267,
      "JI": 6268,
      "bieu": 6269,
      "duoi": 6270,
      "dri": 6271,
      "Ġá»Ľt": 6272,
      "Ġ2006": 6273,
      "www": 6274,
      "THPT": 6275,
      "thá»Ŀi": 6276,
      "EP": 6277,
      "ĠVáº¥p": 6278,
      "Ġvá»Ľt": 6279,
      "Ġkit": 6280,
      "ĠNá»": 6281,
      "Äĳáº¿n": 6282,
      "ĠViáº¹": 6283,
      "HS": 6284,
      "á»ĮNG": 6285,
      "ĠÄĲBQH": 6286,
      "ĠbÃłng": 6287,
      "omes": 6288,
      "bl": 6289,
      "dac": 6290,
      "ena": 6291,
      "VP": 6292,
      "ĠSai": 6293,
      "Ġváº¡ch": 6294,
      "thá»±c": 6295,
      "ĠNguyá»ĩt": 6296,
      "Ġ1995": 6297,
      "CÃ¹ng": 6298,
      "ĠÄĳá»Ľn": 6299,
      "Ġbá»įn": 6300,
      "pr": 6301,
      "ĠtrÃ¡n": 6302,
      "ĠMobiFone": 6303,
      "nguyÃªn": 6304,
      ".\",\"\"\"": 6305,
      "khoan": 6306,
      "ĠDavid": 6307,
      "ĠchÃ´n": 6308,
      "2011": 6309,
      "ĠRang": 6310,
      "ĠTRá»ĮNG": 6311,
      "ĠlÃ¡t": 6312,
      "mer": 6313,
      "ĠkiÃª": 6314,
      "sieu": 6315,
      "ĠJa": 6316,
      "ĠPCR": 6317,
      "cha": 6318,
      "ĠATVSLÄĲ": 6319,
      "MS": 6320,
      "ĠAstraZeneca": 6321,
      "ÄĲáº¥t": 6322,
      "Ġinternet": 6323,
      "HÆ°á»Ľng": 6324,
      "Ġmá»ĵi": 6325,
      "ĠquÃ¡t": 6326,
      "ĠnhÃŃ": 6327,
      "chuong": 6328,
      "VFTA": 6329,
      "ĠTW": 6330,
      "CáºŃp": 6331,
      "ThÃŃ": 6332,
      "Biáº¿n": 6333,
      "ĠBTC": 6334,
      "ĠDai": 6335,
      "LÄĲTT": 6336,
      "ĠHá»Ĵ": 6337,
      "báº£o": 6338,
      "tp": 6339,
      "ĠHi": 6340,
      "Ġráº½": 6341,
      "Ġview": 6342,
      "Ġcholesterol": 6343,
      "Ġbá»Ĺng": 6344,
      "sh": 6345,
      "ĠViÃª": 6346,
      "ĠEverton": 6347,
      "Ġ82": 6348,
      "ĠPY": 6349,
      "ĠKhÃ³": 6350,
      "LÃ£nh": 6351,
      "Ġ83": 6352,
      "ĠGiáº£m": 6353,
      "uni": 6354,
      "ĠBel": 6355,
      "bra": 6356,
      "Ġnháº¡t": 6357,
      "ĠLeicester": 6358,
      "ĠÄĲáº¯c": 6359,
      "ĠMich": 6360,
      "ĠhÃ£i": 6361,
      "ĠtrÃ¡ng": 6362,
      "Ġrá»Ļ": 6363,
      "Ġchá»įi": 6364,
      "BTS": 6365,
      "ĠTrá»±c": 6366,
      "Ġtháº§m": 6367,
      "Ġxen": 6368,
      "omp": 6369,
      "ĠsÆ°u": 6370,
      "ĠÄĳÃ¹a": 6371,
      "Ġsá»¥p": 6372,
      "ÄĲÃ´ng": 6373,
      "ĠNhÃ¬": 6374,
      "Ġao": 6375,
      "Ġ94": 6376,
      "ĠRam": 6377,
      "TrÃł": 6378,
      "ĠmÃºa": 6379,
      "Ġ84": 6380,
      "bar": 6381,
      "Ġ78": 6382,
      "ĠVá»£": 6383,
      "THANH": 6384,
      "Fast": 6385,
      "Ġ2005": 6386,
      "Ġtá»±a": 6387,
      "ĠRáº«y": 6388,
      "ristiano": 6389,
      "ĠxÃ´i": 6390,
      "ĠBig": 6391,
      "Quá»·": 6392,
      "Ġnáº¡": 6393,
      "ĠVÆ°á»£ng": 6394,
      "ĠthÃ¢": 6395,
      "Ġ105": 6396,
      "ĠÄĳoan": 6397,
      "ĠchÃ¹m": 6398,
      "ĠKane": 6399,
      "kham": 6400,
      "Real": 6401,
      "VÃ²ng": 6402,
      "Ġw": 6403,
      "Ġ2002": 6404,
      "ĠOman": 6405,
      "Qua": 6406,
      "phone": 6407,
      "ĠWil": 6408,
      "Äĳang": 6409,
      "BA": 6410,
      "ĠSup": 6411,
      "ĠXÆ°Æ¡ng": 6412,
      "cast": 6413,
      "ĠTá»ĳt": 6414,
      "ÄĲáº§u": 6415,
      "vel": 6416,
      "ĠrÄĥn": 6417,
      "Ġgáº§m": 6418,
      "Ġá»©": 6419,
      "Ġtrinh": 6420,
      "ĠphÆ¡i": 6421,
      "Ġcá»į": 6422,
      "ĠJames": 6423,
      "Ġcáº¯n": 6424,
      "Chá»ĳng": 6425,
      "Ġkhuy": 6426,
      "ĠMÃ¢y": 6427,
      "ĠDOJI": 6428,
      "Ġlui": 6429,
      "Ġná»ĵi": 6430,
      "ĠÄĲTQG": 6431,
      "ĠÄĳá»¥ng": 6432,
      "ĠÄĲáº±ng": 6433,
      "ĠÃģo": 6434,
      "Ġkiá»ģm": 6435,
      "diá»ħn": 6436,
      "ÄĳoÃłn": 6437,
      "VÄĲ": 6438,
      "rl": 6439,
      "Giáº¿t": 6440,
      "ĠPan": 6441,
      "ĠSerie": 6442,
      "Tuáº¥n": 6443,
      "national": 6444,
      "Ġláº·n": 6445,
      "ĠxoÃ¡y": 6446,
      "Park": 6447,
      "ĠdÃ£y": 6448,
      "ĠPl": 6449,
      "ĠAN": 6450,
      "ĠSal": 6451,
      "ĠBri": 6452,
      "ĠVang": 6453,
      "Ġmá»į": 6454,
      "ĠNháº±m": 6455,
      "áº¬T": 6456,
      "ĠtÆ¡": 6457,
      "Ġngáº¯m": 6458,
      "ĠWon": 6459,
      "Ġmá»ıng": 6460,
      "ĠthÃ²i": 6461,
      "zu": 6462,
      "MC": 6463,
      "ĠChiá»ĥu": 6464,
      "ĠDjokovic": 6465,
      "ĠVaccine": 6466,
      "ĠGV": 6467,
      "nhanh": 6468,
      "ĠVa": 6469,
      "ĠNghiá»ĩp": 6470,
      "Ġkhoang": 6471,
      "cn": 6472,
      "tat": 6473,
      "ĠTRáº¦N": 6474,
      "cÃ¢u": 6475,
      "láº§n": 6476,
      "ĠxÃŃ": 6477,
      "ĠTháºŃt": 6478,
      "ĠKhÃ¡m": 6479,
      "LÅ©": 6480,
      "cá»ķ": 6481,
      "edes": 6482,
      "ĠngÃ¢m": 6483,
      "ĠJin": 6484,
      "ChuyÃªn": 6485,
      "aku": 6486,
      "ná»¯": 6487,
      "Ġ1999": 6488,
      "ĠÃª": 6489,
      "250": 6490,
      "soc": 6491,
      "ĠPhÆ°á»Ŀng": 6492,
      "ĠÄĳáº¡m": 6493,
      "ÄĲÆ°á»£c": 6494,
      "ĠhoÃłi": 6495,
      "VÃ¢n": 6496,
      "ĠOb": 6497,
      "bÃ£o": 6498,
      "Ġkiá»ģu": 6499,
      "Ġbáº«y": 6500,
      "ĠPhÃ³ng": 6501,
      "Æ¯NG": 6502,
      "Ġve": 6503,
      "ĠCÃºc": 6504,
      "Thiáº¿u": 6505,
      "Cho": 6506,
      "ĠMáº«n": 6507,
      "ĠDortmund": 6508,
      "Ġ87": 6509,
      "Ġâ": 6510,
      "ĠSch": 6511,
      "Ġviáº¹": 6512,
      "xuong": 6513,
      "Ġquáº¥y": 6514,
      "Ġtháº¡c": 6515,
      "hl": 6516,
      "ĠLáº¡i": 6517,
      "ren": 6518,
      "Ġtia": 6519,
      "lian": 6520,
      "NÆ°á»Ľc": 6521,
      "cÃ¹ng": 6522,
      "Ġcá»Ĺ": 6523,
      "âĢ¦,": 6524,
      "MA": 6525,
      "Ġngoan": 6526,
      "ĠOle": 6527,
      "nd": 6528,
      "real": 6529,
      "ĠKháº£": 6530,
      "ĠtrÄĥn": 6531,
      "alaysia": 6532,
      "oly": 6533,
      "ĠBin": 6534,
      "dak": 6535,
      "ĠÃĤn": 6536,
      "Khá»Łi": 6537,
      "ĠchÆ°ng": 6538,
      "ĠCor": 6539,
      "ĠngÃ´": 6540,
      "Ġquáº§y": 6541,
      "ĠToáº£n": 6542,
      "ĠQLTT": 6543,
      "ĠvuÃ´ng": 6544,
      "'s": 6545,
      "gy": 6546,
      "ĠCEO": 6547,
      "HÃĢ": 6548,
      "Kiá»ĥm": 6549,
      "Ġváº·t": 6550,
      ".âĢĿ": 6551,
      "sp": 6552,
      "ĠSala": 6553,
      "ĠOp": 6554,
      "ĠGá»": 6555,
      "dow": 6556,
      "Ġ116": 6557,
      "QuáºŃn": 6558,
      "alif": 6559,
      "ĠVilla": 6560,
      "Ġcá»Łi": 6561,
      "trÆ°á»Ŀng": 6562,
      "Ġ1993": 6563,
      "Ġtá»¥t": 6564,
      "ThiÃªn": 6565,
      "ĠKhuÃª": 6566,
      "ĠÄĤ": 6567,
      "BÃ¡c": 6568,
      "min": 6569,
      "ĠCroatia": 6570,
      "âĢĵ": 6571,
      "ĠFa": 6572,
      "nCoV": 6573,
      "hoáº·c": 6574,
      "ĠnÃ´": 6575,
      "MW": 6576,
      "ĠÄĲáº©y": 6577,
      "ĠLink": 6578,
      "ĠGates": 6579,
      "stan": 6580,
      "ĠMINH": 6581,
      "Blackpink": 6582,
      "chieu": 6583,
      "NHáº¬T": 6584,
      "boi": 6585,
      "ealth": 6586,
      "howbiz": 6587,
      "ĠThÆ°á»Łng": 6588,
      "Ġgá»«ng": 6589,
      "ĠHol": 6590,
      "eng": 6591,
      "ĠSputnik": 6592,
      "AFF": 6593,
      "Ġtáº·c": 6594,
      "ĠDon": 6595,
      "Ġdá»Ĺ": 6596,
      "ĠAma": 6597,
      "Ġviáº¿ng": 6598,
      "ĠYe": 6599,
      "Quan": 6600,
      "ĠhÃ©": 6601,
      "ĠTHÆł": 6602,
      "Ġ2004": 6603,
      "ornia": 6604,
      "ĠVCK": 6605,
      "ĠHoan": 6606,
      "alifornia": 6607,
      "ngoi": 6608,
      "LÃ½": 6609,
      "ĠthiÃªng": 6610,
      "Ġrá»ĩt": 6611,
      "ĠHuawei": 6612,
      "Ġ1997": 6613,
      "Máº¹": 6614,
      "stics": 6615,
      "ster": 6616,
      "hot": 6617,
      "ÄĳÃ¡nh": 6618,
      "ille": 6619,
      "Ġmetro": 6620,
      "ÄĲá»Ļng": 6621,
      "Ġ1996": 6622,
      "bal": 6623,
      "ĠMB": 6624,
      "79310": 6625,
      "fi": 6626,
      "Ġhttps": 6627,
      "ĠGiÃ¡ng": 6628,
      "Ġ450": 6629,
      "khung": 6630,
      "Ġ0979310": 6631,
      "Ġ0979310518": 6632,
      "Gáº§n": 6633,
      "nÃ³ng": 6634,
      "ĠNu": 6635,
      "ĠÄĤn": 6636,
      "ĠnghiÃª": 6637,
      "Há»¯u": 6638,
      "hiá»ĩn": 6639,
      "ĠAI": 6640,
      "...,": 6641,
      "ĠtrÃłng": 6642,
      "ĠBus": 6643,
      "Ġbuá»ĵng": 6644,
      "Ã©c": 6645,
      "itamin": 6646,
      "ei": 6647,
      "burg": 6648,
      "Ġkhuáº¥t": 6649,
      "Ġ1992": 6650,
      "nghá»": 6651,
      "áº¤n": 6652,
      "EN": 6653,
      "ĠHarry": 6654,
      "ĠLiá»ĩu": 6655,
      "oll": 6656,
      "ĠZalo": 6657,
      "ĠxÃ¬": 6658,
      "ways": 6659,
      "ure": 6660,
      "ĠSeoul": 6661,
      "ĠÄĲÃłn": 6662,
      "¨m": 6663,
      "Æ¯u": 6664,
      "Ġrobot": 6665,
      "cay": 6666,
      "2026": 6667,
      "Äĳáº¡t": 6668,
      "ĠvÃ³c": 6669,
      "ĠTD": 6670,
      "Ġqui": 6671,
      "ÃļC": 6672,
      "ĠgiÃ²": 6673,
      "bek": 6674,
      "Ġset": 6675,
      "áºłNH": 6676,
      "ĠBuá»ķi": 6677,
      "tiá»ģn": 6678,
      "Ġ170": 6679,
      "castle": 6680,
      "Ġ128": 6681,
      "nai": 6682,
      "ÌĽÌĥ": 6683,
      "ance": 6684,
      "eroin": 6685,
      "ĠSáº½": 6686,
      "ĠXá»Ń": 6687,
      "ĠJohnson": 6688,
      "ĠbÃ¹n": 6689,
      "Bar": 6690,
      "ĠnháºŃm": 6691,
      "Ġvá»©t": 6692,
      "Ġphe": 6693,
      "ĠCháº³ng": 6694,
      "ĠHeerenveen": 6695,
      "ĠkÃŃp": 6696,
      "ĠÄĲá»ı": 6697,
      "Äĳáº§u": 6698,
      "ĠÆ¡i": 6699,
      "ĠInternational": 6700,
      "Ġnguá»Ļi": 6701,
      "khanh": 6702,
      "ĠSC": 6703,
      "áºłM": 6704,
      "GÄĲ": 6705,
      "ks": 6706,
      "giÃ¡o": 6707,
      "Táº¥t": 6708,
      "ĠlÃºn": 6709,
      "ĠBÃ¢y": 6710,
      "ĠKCB": 6711,
      "ĠTÆ¯LÄĲTT": 6712,
      "ĠNáº¡n": 6713,
      "ĠTechcombank": 6714,
      "Ġ1994": 6715,
      "ĠtrÆ¡n": 6716,
      "ĠHN": 6717,
      "cean": 6718,
      "kip": 6719,
      "ĠCapit": 6720,
      "Ġrá»ĥ": 6721,
      "dip": 6722,
      "ĠMart": 6723,
      "KCN": 6724,
      "LNA": 6725,
      "ĠtriÃª": 6726,
      "Nháº¡c": 6727,
      "ĠthÃ¬a": 6728,
      "ish": 6729,
      "Ġ1998": 6730,
      "ĠlÃ¬": 6731,
      "ĠQuyÃªn": 6732,
      "hÃ´m": 6733,
      "CLB": 6734,
      "ĠTáº¡o": 6735,
      "ambo": 6736,
      "BÃ¡n": 6737,
      "ĠÄĲáºłI": 6738,
      "Ġhiá»ĥn": 6739,
      "QUANG": 6740,
      "ĠBR": 6741,
      "Ġlá»¥y": 6742,
      "ĠFA": 6743,
      "LD": 6744,
      "ĠChÆ°": 6745,
      "trá»«": 6746,
      "Ġáº¡t": 6747,
      "Ìģ,": 6748,
      "kaku": 6749,
      "ĠÄĲá»£t": 6750,
      "aland": 6751,
      "ĠÄĳá»ĳn": 6752,
      "ingroup": 6753,
      "á»±a": 6754,
      "EX": 6755,
      "ĠphÃ¬": 6756,
      "ĠChuáº©n": 6757,
      "ĠmÃ²": 6758,
      "Ġchuá»Ļng": 6759,
      "ment": 6760,
      "kim": 6761,
      "ĠNÃ¢ng": 6762,
      "ĠGÄĲ": 6763,
      "Ġchui": 6764,
      "Ãªnh": 6765,
      "AP": 6766,
      "cedes": 6767,
      "CCD": 6768,
      ",âĢľ": 6769,
      "ĠLang": 6770,
      "ÃŃp": 6771,
      "ĠTHÆ¯": 6772,
      "Ġmáº¯m": 6773,
      "ĠcháºŃu": 6774,
      "Ġkhao": 6775,
      "men": 6776,
      "nhÃ¢n": 6777,
      "ĠÄĲV": 6778,
      "ĠSÃ¡ch": 6779,
      "Báº¿n": 6780,
      "ĠbÆ°á»Łi": 6781,
      "ĠHÃło": 6782,
      "ĠLand": 6783,
      "ONG": 6784,
      "ÄĲÃĶNG": 6785,
      "Tráº»": 6786,
      "ĠTay": 6787,
      "ĠMusk": 6788,
      "ĠCCCD": 6789,
      "ĠGuardiola": 6790,
      "HÄĲ": 6791,
      "ĠJer": 6792,
      "ChÄĥm": 6793,
      "ĠthÃ¡nh": 6794,
      "giay": 6795,
      "akistan": 6796,
      "Ġ220": 6797,
      "SÃ¢n": 6798,
      "ĠthiÃªu": 6799,
      "Ġnhá»įn": 6800,
      "ĠTV": 6801,
      "ĠquáºŃt": 6802,
      "ĠMÃ¡y": 6803,
      "ĠMed": 6804,
      "ĠSky": 6805,
      "ĠHÃ¨": 6806,
      "HÆ¯NG": 6807,
      "dal": 6808,
      "ĠÄĳáº¯ng": 6809,
      "ĠMÃ´": 6810,
      "2010": 6811,
      "ĠGP": 6812,
      "ĠChÃªnh": 6813,
      "vÃło": 6814,
      "ĠHÆ°á»Ŀng": 6815,
      "ĠNÆ¡i": 6816,
      "Bá»ķ": 6817,
      "CÃł": 6818,
      "IM": 6819,
      "ĠlÃ¡ch": 6820,
      "ĠÄĳÃ¹i": 6821,
      "Æ¯á»ľ": 6822,
      "ther": 6823,
      "ida": 6824,
      "ĠVenezuela": 6825,
      "zy": 6826,
      "xo": 6827,
      "ĠthÃ¡m": 6828,
      "ĠvÃ£": 6829,
      "ĠMike": 6830,
      "ĠáºŃp": 6831,
      "ĠrÃ²": 6832,
      "ĠsÆ°ng": 6833,
      "ĠSU": 6834,
      "ĠchÄĥng": 6835,
      "Ġlá»¯": 6836,
      "Ġngá»ı": 6837,
      "ĠLion": 6838,
      "ĠBáº¹": 6839,
      "ĠVÄĲV": 6840,
      "Ġgas": 6841,
      "Ã¹y": 6842,
      "troi": 6843,
      "ÄĳÃ¡p": 6844,
      "hÃ´i": 6845,
      "hÃ´n": 6846,
      "ĠTan": 6847,
      "ĠDÄ©": 6848,
      "ĠÃ´xy": 6849,
      "ĠSá»": 6850,
      "ĠSuá»ĳi": 6851,
      "ze": 6852,
      "ĠvÃº": 6853,
      "Ġbá»Ļi": 6854,
      "Nhá»": 6855,
      "ĠPhá»ĳi": 6856,
      "fan": 6857,
      "ĠTRI": 6858,
      "ĠAFP": 6859,
      "ĠNhuáºŃn": 6860,
      "rung": 6861,
      "Äĳiá»ģu": 6862,
      "Ġ1988": 6863,
      "ĠCovid": 6864,
      "ELTS": 6865,
      "ĠLoáº¡i": 6866,
      "ĠnÃ²ng": 6867,
      "Ġcua": 6868,
      "Ġrá»ĳt": 6869,
      "Messi": 6870,
      "VFF": 6871,
      "VÆ¯ÆłNG": 6872,
      "áº»o": 6873,
      "zbek": 6874,
      "ĠnhÃ¡t": 6875,
      "Ġtháº¯p": 6876,
      "Ġhao": 6877,
      "Ġ1991": 6878,
      "hlv": 6879,
      "eman": 6880,
      "PCR": 6881,
      "ĠBÃ©": 6882,
      "xxx": 6883,
      "má»Ĺi": 6884,
      "Ġnháº·t": 6885,
      "ĠbÃ³c": 6886,
      "Ġgáº¡t": 6887,
      "ĠCalifornia": 6888,
      "ĠXÃ¡c": 6889,
      "ĠTuá»ķi": 6890,
      "Ġchiáº¿t": 6891,
      "ĠCáº§m": 6892,
      "ĠVua": 6893,
      "ĠNgÃ´i": 6894,
      "ĠtÃ¹ng": 6895,
      "ĠPháº¡t": 6896,
      "ĠvÄĥng": 6897,
      "ĠMong": 6898,
      "LÃł": 6899,
      "ĠVKSND": 6900,
      "MÃ¹a": 6901,
      "Tiáº¿n": 6902,
      "ĠTTT": 6903,
      "Ġdáº·n": 6904,
      "zbekistan": 6905,
      "cá»±u": 6906,
      "ĠBor": 6907,
      "ĠkhÃ´n": 6908,
      "ChÃ": 6909,
      "ĠTuÃ¢n": 6910,
      "ĠXa": 6911,
      "BÃªn": 6912,
      "ĠChuyá»ĥn": 6913,
      "ĠJi": 6914,
      "ĠlÆ°á»¡i": 6915,
      "ĠnhÃ©": 6916,
      "ĠThiá»ģu": 6917,
      "ĠPháº£": 6918,
      "ĠThÃ¢n": 6919,
      "báº¯t": 6920,
      "ustin": 6921,
      "ds": 6922,
      "dá»": 6923,
      "ĠTrÃ¢m": 6924,
      "world": 6925,
      "ĠÄĲiá»ĩp": 6926,
      "ĠVic": 6927,
      "ĠvÄ©nh": 6928,
      "ĠmÃ¨o": 6929,
      "assa": 6930,
      "kich": 6931,
      "Ġnan": 6932,
      "Ġcovid": 6933,
      "ĠTá»ĳ": 6934,
      "Ġráº¯c": 6935,
      "xanh": 6936,
      "ĠÄĲÃ´n": 6937,
      "ĠchÃ¬a": 6938,
      "tv": 6939,
      "ĠhÃłn": 6940,
      "ĠHÃ³c": 6941,
      "TÃŃnh": 6942,
      "ĠBÃ¡n": 6943,
      "ĠLÃ¢n": 6944,
      "Ġgá»Ļp": 6945,
      "luu": 6946,
      "ĠObama": 6947,
      "amboo": 6948,
      "ĠHÃ²n": 6949,
      "ĠYoutube": 6950,
      "xá»Ń": 6951,
      "Ġdáº¡n": 6952,
      "ĠLisa": 6953,
      "TrÆ°á»Łng": 6954,
      "ĠAmazon": 6955,
      "Ġmi": 6956,
      "ĠkhÃŃa": 6957,
      "LÃĬ": 6958,
      "TrÃ¡i": 6959,
      "ĠÄĲÃºng": 6960,
      "Ġlink": 6961,
      "Ġxi": 6962,
      "Ġmini": 6963,
      "ĠBÃ£i": 6964,
      "DÆ°á»Ľi": 6965,
      "Ġam": 6966,
      "ĠxÃ¹m": 6967,
      "Chelsea": 6968,
      "PHáºłM": 6969,
      "ĠHáº£o": 6970,
      "ĠVAR": 6971,
      "Ġchuye": 6972,
      "ĠhÃŃ": 6973,
      "ÄĲá»Ŀi": 6974,
      "ĠTrÃłng": 6975,
      "Hen": 6976,
      "rong": 6977,
      "KhÆ°Æ¡ng": 6978,
      "tagram": 6979,
      "yl": 6980,
      "Ġhiá»ģn": 6981,
      "ĠKÃŃnh": 6982,
      "tal": 6983,
      "Nha": 6984,
      "BV": 6985,
      "ĠTháº©m": 6986,
      "lub": 6987,
      "vin": 6988,
      "yan": 6989,
      "ĠCÃº": 6990,
      "ĠRu": 6991,
      "EVN": 6992,
      "nghin": 6993,
      "Ġquáº¡t": 6994,
      "8088": 6995,
      "Há»į": 6996,
      "Phong": 6997,
      "AC": 6998,
      "niÃªm": 6999,
      "ĠKháº£o": 7000,
      "Ġ1986": 7001,
      "Manchester": 7002,
      "ĠcÃłnh": 7003,
      "gar": 7004,
      "ĠCO": 7005,
      "Ġlivestream": 7006,
      "ĠbÃ´i": 7007,
      "Ġtuá»³": 7008,
      "ĠXÃ¡": 7009,
      "nhac": 7010,
      "ĠÃįt": 7011,
      "ĠFan": 7012,
      "Ġthá»ĳi": 7013,
      "Ġgiáº¿": 7014,
      "zard": 7015,
      "ĠSalah": 7016,
      "cand": 7017,
      "Ġngáº¥t": 7018,
      "ĠOcean": 7019,
      "Vá»£": 7020,
      "âĢĿâĢ¦": 7021,
      "ani": 7022,
      "ĠRáº¡ch": 7023,
      "thÃ¹ng": 7024,
      "ĠSco": 7025,
      "Ãģp": 7026,
      "ES": 7027,
      "ĠrÃ¡o": 7028,
      "hÃºt": 7029,
      "Ġná»Ļ": 7030,
      "Ġbá»į": 7031,
      "ĠÄĳáº·n": 7032,
      "ĠTrÃ¬nh": 7033,
      "dor": 7034,
      "NgÃłnh": 7035,
      ")\",\"": 7036,
      "NÃ¢ng": 7037,
      "TM": 7038,
      "ĠNor": 7039,
      "ĠrÆ¡": 7040,
      "ĠChá»ĳng": 7041,
      "BGDÄĲT": 7042,
      "zda": 7043,
      "ÄĲi": 7044,
      "Ġghen": 7045,
      "Há»ĵng": 7046,
      "ĠÃ¡ch": 7047,
      "gin": 7048,
      "ĠCÃ¢y": 7049,
      "Ġxá»ĭt": 7050,
      "ĠAirways": 7051,
      "La": 7052,
      "ĠBlo": 7053,
      "ĠPVN": 7054,
      "ĠVinFast": 7055,
      "ĠGreen": 7056,
      "ĠtÃ¢": 7057,
      "ĠGer": 7058,
      "liga": 7059,
      "mann": 7060,
      "ĠModerna": 7061,
      "siÃªu": 7062,
      "Ġmá»Ļc": 7063,
      "ĠSil": 7064,
      "ĠÄĳáº±ng": 7065,
      "ĠWat": 7066,
      "ĠJose": 7067,
      "bel": 7068,
      "Ġcanxi": 7069,
      "Tháº§y": 7070,
      "ding": 7071,
      "Hoáº¡t": 7072,
      "chon": 7073,
      "ĠbÃ³p": 7074,
      "ká»³": 7075,
      "Ġxáº¥p": 7076,
      "Tá»Ń": 7077,
      "ĠJung": 7078,
      "khÃ³": 7079,
      "td": 7080,
      "ĠÄĲáº£m": 7081,
      "ĠWi": 7082,
      "ĠOn": 7083,
      "ĠCÃ´n": 7084,
      "ĠLS": 7085,
      "Æ¯á»Ľc": 7086,
      "Ġnhá»©c": 7087,
      "ĠhÆ°á»Ľc": 7088,
      "ĠSLNA": 7089,
      "Thá»«a": 7090,
      "Äĳá»ĭa": 7091,
      "ĠtÃ³m": 7092,
      "ĠVáº«n": 7093,
      "ĠDÆ°": 7094,
      "cc": 7095,
      "aro": 7096,
      "ĠUBKT": 7097,
      "bile": 7098,
      "ski": 7099,
      "ÂłĠÂł": 7100,
      "Ġ19008088": 7101,
      "Khoáº£ng": 7102,
      "ĠBale": 7103,
      "Ġngá»¡": 7104,
      "via": 7105,
      "ĠVÆ°á»Ŀn": 7106,
      "bach": 7107,
      "Hiá»ĩp": 7108,
      "Ġsáº¡c": 7109,
      "ĠPho": 7110,
      "icro": 7111,
      "ĠThai": 7112,
      "Ġtam": 7113,
      "Ġhit": 7114,
      "Cáº£": 7115,
      "dio": 7116,
      "ĠIndex": 7117,
      "sá»±": 7118,
      "ĠlÃ©o": 7119,
      "ĠÄĲAN": 7120,
      "Vá»«a": 7121,
      "tÃŃnh": 7122,
      "HCN": 7123,
      "ĠSpace": 7124,
      "Äĳoáº¡n": 7125,
      "ael": 7126,
      "120": 7127,
      "Wh": 7128,
      "ĠUzbekistan": 7129,
      "ĠIa": 7130,
      "Ġrá»ķ": 7131,
      "ĠNi": 7132,
      "ĠTRANG": 7133,
      "Ronaldo": 7134,
      "ĠgáºŃy": 7135,
      "ĠFr": 7136,
      "ChÃ¢u": 7137,
      "ĠmÃ¡c": 7138,
      ".\",\"âĢľ": 7139,
      "Viá»ĩn": 7140,
      "Ġtá»ĳng": 7141,
      "chel": 7142,
      "thÃ´ng": 7143,
      "hÆ¡n": 7144,
      "kong": 7145,
      "káº¿t": 7146,
      "kok": 7147,
      "ĠÆ°á»Ľt": 7148,
      "Ġki": 7149,
      "ĠIELTS": 7150,
      "ĠchuÃ´ng": 7151,
      "ĠcÃ´i": 7152,
      "ĠSN": 7153,
      "ĠAC": 7154,
      "Å©a": 7155,
      "ĠYu": 7156,
      "Ġ125": 7157,
      "ĠTá»ĳc": 7158,
      "trump": 7159,
      "ĠTWICE": 7160,
      "Thuá»ĳc": 7161,
      "Trá»Ļm": 7162,
      "CÃ¡": 7163,
      "per": 7164,
      "ĠHung": 7165,
      "gá»": 7166,
      "mong": 7167,
      "ĠquÃ¡i": 7168,
      "ĠKhiÃªm": 7169,
      "ĠLá»Ŀi": 7170,
      "oC": 7171,
      "ĠMÃ´ng": 7172,
      "tÃ´ng": 7173,
      "trÆ°á»Ľc": 7174,
      "ation": 7175,
      "ĠThuá»³": 7176,
      "Æ°á»Ľu": 7177,
      "ĠÄĲá»į": 7178,
      "370": 7179,
      "BÃłi": 7180,
      "imbank": 7181,
      "ĠLá»ĩnh": 7182,
      "lak": 7183,
      "rez": 7184,
      "phÃª": 7185,
      "ĠháºŃn": 7186,
      "BYT": 7187,
      "eing": 7188,
      "ĠbÃ¡u": 7189,
      "ĠTÃ¡m": 7190,
      "Quyá»ģn": 7191,
      "Sp": 7192,
      "áº»m": 7193,
      "ĠCá»Ŀ": 7194,
      "gov": 7195,
      "ĠRá»ĵi": 7196,
      "ĠmÃŃa": 7197,
      "ĠKÃ´ng": 7198,
      "vs": 7199,
      "ĠMoon": 7200,
      "ĠTáº¡p": 7201,
      "ĠlÃ¢": 7202,
      "Ġthoáº£ng": 7203,
      "TÃ¬m": 7204,
      "ble": 7205,
      "ĠMat": 7206,
      "vic": 7207,
      "TU": 7208,
      "ĠPha": 7209,
      "á»Ŀ": 7210,
      "á»¨ng": 7211,
      "Giáº¥y": 7212,
      "NC": 7213,
      "field": 7214,
      "ĠUber": 7215,
      "ĠRanh": 7216,
      "ĠKu": 7217,
      "Chá»ĭ": 7218,
      "anta": 7219,
      "Ġngáº«u": 7220,
      "candal": 7221,
      "Ġheroin": 7222,
      "ffe": 7223,
      "vir": 7224,
      "ĠNhiá»ĩm": 7225,
      "ĠtrÆ¡": 7226,
      "ĠTX": 7227,
      "Æ¯á»ľNG": 7228,
      "las": 7229,
      "Ã³p": 7230,
      "Ġ112": 7231,
      "PG": 7232,
      "Ġmá»Ļng": 7233,
      "ĠKSND": 7234,
      "cos": 7235,
      "ĠBÃ´": 7236,
      "ĠquyÃª": 7237,
      "ĠPháº¥n": 7238,
      "ĠxÃ¡m": 7239,
      "ĠFord": 7240,
      "bÃ¬nh": 7241,
      "vak": 7242,
      "olla": 7243,
      "undes": 7244,
      "Ġsá»ıi": 7245,
      "Ġman": 7246,
      "SCO": 7247,
      "ĠhÆ¡": 7248,
      "Ġá»ĵ": 7249,
      "Ġ101": 7250,
      "ĠRáº¡ng": 7251,
      "von": 7252,
      "ĠCat": 7253,
      "ĠVNPT": 7254,
      "dá»ĭch": 7255,
      "hÃłng": 7256,
      "ĠHCV": 7257,
      "ĠLiá»ĩt": 7258,
      "ĠPas": 7259,
      "ĠSin": 7260,
      "hipper": 7261,
      "ĠQuÃ¡ch": 7262,
      "ĠThuáºŃt": 7263,
      "het": 7264,
      "1000": 7265,
      "HÃ£y": 7266,
      "ci": 7267,
      "ĠHO": 7268,
      "ĠHer": 7269,
      ",\"âĢľ": 7270,
      "ĠPhá»¥c": 7271,
      "HuyÃªn": 7272,
      "ĠCá»¥m": 7273,
      "ĠATGT": 7274,
      "ĠHTX": 7275,
      "ttp": 7276,
      "ĠLukaku": 7277,
      "TÃªn": 7278,
      "tá»ķng": 7279,
      "ĠBruno": 7280,
      "ĠVinhomes": 7281,
      "Ġapp": 7282,
      "Tuá»ķi": 7283,
      "ĠPakistan": 7284,
      "ĠThá»ıa": 7285,
      "Ġtuáº¥t": 7286,
      "verse": 7287,
      "sac": 7288,
      "ĠBE": 7289,
      "ĠÄĳá»ĳng": 7290,
      "Ġdoáº¡": 7291,
      "phÃ¡t": 7292,
      "well": 7293,
      "niem": 7294,
      "ĠXK": 7295,
      "Sáº¡t": 7296,
      "ĠCr": 7297,
      "Ġsen": 7298,
      "ĠOr": 7299,
      "Ġ2001": 7300,
      "Vinh": 7301,
      "Ġtem": 7302,
      "ĠchiÃªn": 7303,
      "ĠGala": 7304,
      "kin": 7305,
      "ĠvÃ¹i": 7306,
      "ania": 7307,
      "xh": 7308,
      "CX": 7309,
      "Cá»ĳ": 7310,
      "cang": 7311,
      "ĠÄĲÃ´i": 7312,
      "ĠBank": 7313,
      "Ġbong": 7314,
      "ĠVingroup": 7315,
      "ĠSha": 7316,
      "ml": 7317,
      "ngá»": 7318,
      "Ġlá»Ļc": 7319,
      "undesliga": 7320,
      "nhiet": 7321,
      "ĠMang": 7322,
      "ĠSev": 7323,
      "NháºŃp": 7324,
      "chot": 7325,
      "ĠÄĳÃŃnh": 7326,
      "Lá»¥c": 7327,
      "cÅ©ng": 7328,
      "ĠPaul": 7329,
      "win": 7330,
      "neu": 7331,
      "Ġlie": 7332,
      "ĠBÃ¨": 7333,
      "ĠVer": 7334,
      "ĠAd": 7335,
      "ĠCáº£i": 7336,
      "Má»Ł": 7337,
      "Ġphao": 7338,
      "ĠNou": 7339,
      "air": 7340,
      "ĠAu": 7341,
      "ĠsÆ°á»Ŀn": 7342,
      "ĠDinh": 7343,
      "ĠÄĳáº¥m": 7344,
      "ĠmÃ¡": 7345,
      "Ġtrá»ĩ": 7346,
      "banon": 7347,
      "ĠChuyáº¿n": 7348,
      "ĠchÃ¢": 7349,
      "VáºŃn": 7350,
      "ĠkiÃªng": 7351,
      "ĠNet": 7352,
      "tti": 7353,
      "Ġmuá»Ĺi": 7354,
      "Ġrá»Ľt": 7355,
      "Ġ1989": 7356,
      "ĠmÃły": 7357,
      "Ġdáº¡i": 7358,
      "ĠLÃ´": 7359,
      "Ġcorona": 7360,
      "ĠMU": 7361,
      "ĠST": 7362,
      "buoc": 7363,
      "¥a": 7364,
      "eway": 7365,
      "Ġváº¥p": 7366,
      "ĠÄĳÃ¨o": 7367,
      "ĠEd": 7368,
      "ĠlÃ¹m": 7369,
      "sua": 7370,
      "ĠBL": 7371,
      "Äĳá»£t": 7372,
      "ĠInstagram": 7373,
      "ĠrÃ¡ch": 7374,
      "ĠTuá»ĩ": 7375,
      "ĠÄĳinh": 7376,
      "ĠFer": 7377,
      "Äĳáº¥t": 7378,
      "lywood": 7379,
      "oney": 7380,
      "ĠPhá»¥ng": 7381,
      "ĠCen": 7382,
      "ĠÄĲÄĥ": 7383,
      "ĠNewcastle": 7384,
      "ĠÄĲen": 7385,
      "âĢ¦âĢ¦": 7386,
      "?âĢĿ.": 7387,
      "HáºŃu": 7388,
      "ĠDÃ¹ng": 7389,
      "gr": 7390,
      "ĠTuyá»ģn": 7391,
      "ĠÄĲáº«y": 7392,
      "ĠLos": 7393,
      "omberg": 7394,
      "ĠConte": 7395,
      "lá»ĭch": 7396,
      "huan": 7397,
      "assage": 7398,
      "ĠPi": 7399,
      "ĠLionel": 7400,
      "Ġ2026": 7401,
      "ĠFern": 7402,
      "ĠNadal": 7403,
      "BÃ¹i": 7404,
      "Ġ103": 7405,
      "Ġ113": 7406,
      "ĠMercedes": 7407,
      "DÆ°Æ¡ng": 7408,
      "off": 7409,
      "ĠÄĲáºŃu": 7410,
      ")...": 7411,
      "ieng": 7412,
      "Ai": 7413,
      "vet": 7414,
      "ĠRai": 7415,
      "idge": 7416,
      "ita": 7417,
      "Ġ1987": 7418,
      "Ġxoáº¯n": 7419,
      "guay": 7420,
      "Lo": 7421,
      "Danh": 7422,
      "tiáº¿p": 7423,
      "ĠThuÃ½": 7424,
      "Báº£ng": 7425,
      "ĠKi": 7426,
      "Champions": 7427,
      "ĠRobert": 7428,
      "Liverpool": 7429,
      "ek": 7430,
      "Ġnghá»ĭch": 7431,
      "ĠChris": 7432,
      "hoach": 7433,
      "Má»©c": 7434,
      "ĠlÃ¹ng": 7435,
      "2008": 7436,
      "ĠFo": 7437,
      "ings": 7438,
      "Ġngá»±a": 7439,
      "ĠÂłĠÂłĠÂłĠÂłĠÂłĠÂłĠÂłĠÂł": 7440,
      "Ġkhuya": 7441,
      "NS": 7442,
      "tom": 7443,
      "ĠCristiano": 7444,
      "Ġpháº³ng": 7445,
      "ĠxoÃłi": 7446,
      "ĠAward": 7447,
      "ĠLÃ£ng": 7448,
      "hino": 7449,
      "ÄĤn": 7450,
      "350": 7451,
      "Ġpháº«n": 7452,
      "ĠÄĲá»«ng": 7453,
      "Báº¡o": 7454,
      "lat": 7455,
      "Ġkhiáº¿p": 7456,
      "ag": 7457,
      "Facebook": 7458,
      "ĠCas": 7459,
      "NhÃ": 7460,
      "Ġnhiá»ħu": 7461,
      "Ġkhang": 7462,
      "ĠTrÃ£i": 7463,
      "kov": 7464,
      "ĠLH": 7465,
      "ĠMuá»ĳn": 7466,
      "Ġ(+": 7467,
      "Lá»±c": 7468,
      "ĠHazard": 7469,
      "ĠTRUNG": 7470,
      "ĠSim": 7471,
      "ĠkhiÃªm": 7472,
      "HoÃłn": 7473,
      "ĠthÃ¨m": 7474,
      "Ġdáº¡o": 7475,
      "ĠDaily": 7476,
      "bh": 7477,
      "ĠHal": 7478,
      "tic": 7479,
      "ĠlÃ¡ng": 7480,
      "ĠPost": 7481,
      "SV": 7482,
      "ĴNG": 7483,
      "Ġgáº·t": 7484,
      "Ġrong": 7485,
      "ĠKÃ½": 7486,
      "ampton": 7487,
      "ĠBez": 7488,
      "FIFA": 7489,
      "Bluezone": 7490,
      "mail": 7491,
      "ĠlÆ°á»Ľt": 7492,
      "Ġchá»įc": 7493,
      "ĠTKV": 7494,
      "ĠCá»©": 7495,
      "ĠMÃ³ng": 7496,
      "Ġgiáº¿ng": 7497,
      "Ġ129": 7498,
      "Ġmáº¡": 7499,
      "ĠHen": 7500,
      "ĠLÃ£o": 7501,
      "ThÆ°á»Łng": 7502,
      "Tá»±": 7503,
      "ĠcÃ¡m": 7504,
      "ĠnÆ°Æ¡ng": 7505,
      "ĠBÃ£o": 7506,
      "ĠTrÃ¡ch": 7507,
      "ÄĲá»ķi": 7508,
      "ĠAz": 7509,
      "ĠTá»ĭnh": 7510,
      "tion": 7511,
      "mung": 7512,
      "ĠLONG": 7513,
      "Ġbáº©m": 7514,
      "ĠxÃ¡o": 7515,
      "ĠNgá»": 7516,
      "ĠNghe": 7517,
      "ĠÄĳiÃªn": 7518,
      "ĠnÆ°Æ¡": 7519,
      "ĠDong": 7520,
      "Ġni": 7521,
      "Ġ1980": 7522,
      "ĠKiev": 7523,
      "giáºŃt": 7524,
      "ĠÄĳÃºp": 7525,
      "ToÃłn": 7526,
      "Ġbáº¥y": 7527,
      "ĠNáºŃm": 7528,
      "ĠVIII": 7529,
      "ĠxÆ°á»Ľng": 7530,
      "ĠSá»¯a": 7531,
      "ĠÆ¯u": 7532,
      "ĠNe": 7533,
      "ĠRá»ĵng": 7534,
      "ĠKha": 7535,
      "ĠtÆ°á»Ľi": 7536,
      "ĠGBP": 7537,
      "Cháº¿": 7538,
      "trach": 7539,
      "ĠGiá»¯a": 7540,
      "him": 7541,
      "Ġnáº¯p": 7542,
      "âĢĿ\",\"": 7543,
      "ĠGiÃłng": 7544,
      "THUá»²": 7545,
      "vÃłng": 7546,
      "ĠPol": 7547,
      "Ġngháº¹n": 7548,
      "Ġyáº¿n": 7549,
      "SA": 7550,
      "ĠcÆ°ng": 7551,
      "ĠghÃ©": 7552,
      "ĠphÃ¢": 7553,
      "Ġluá»Ļc": 7554,
      "Ġ1975": 7555,
      "ĠEVFTA": 7556,
      "duy": 7557,
      "Ġáº¿": 7558,
      "ĠâĢĺ": 7559,
      "nhau": 7560,
      "ĠTex": 7561,
      "Ġvá»ĭt": 7562,
      "suat": 7563,
      "nger": 7564,
      "Ġráº¡ch": 7565,
      "Ġhoi": 7566,
      "Tra": 7567,
      "khá»": 7568,
      "ĠSuper": 7569,
      "ĠBQL": 7570,
      "som": 7571,
      "Ġháº»m": 7572,
      "Ġná»ĳt": 7573,
      "ĠThÆ°a": 7574,
      "Ġbá»ī": 7575,
      "ÄĲá»įc": 7576,
      "ĠIr": 7577,
      "ĠTom": 7578,
      "ĠÄĲá»ĩ": 7579,
      "PTPP": 7580,
      "Australia": 7581,
      "Báº¢O": 7582,
      "beco": 7583,
      "bom": 7584,
      "ĠgiÃłn": 7585,
      "2009": 7586,
      "204": 7587,
      "wan": 7588,
      "ĠMÅ©i": 7589,
      ")âĢ¦": 7590,
      "Ġsá»į": 7591,
      "ĠvÃ¢n": 7592,
      "ite": 7593,
      "ĠphÃł": 7594,
      "lá»Ľp": 7595,
      "phÃºt": 7596,
      "arma": 7597,
      "ĠBlack": 7598,
      "Ġbáº¡t": 7599,
      "ĠLáº§u": 7600,
      "Ġ(-": 7601,
      "CÆ°á»Ľp": 7602,
      "ĠBamboo": 7603,
      "ĠDoÃ£n": 7604,
      "Ġtivi": 7605,
      "Ġgiang": 7606,
      "ThÆ°á»£ng": 7607,
      "Ġ135": 7608,
      "ĠJeff": 7609,
      "Ġhoáº¡": 7610,
      "ĠhoÃ¡n": 7611,
      "Ġtriáº¿t": 7612,
      "Ġhoáº£": 7613,
      "HÆ°ng": 7614,
      "ĠElon": 7615,
      "Ġ1985": 7616,
      "vai": 7617,
      "ros": 7618,
      "ĠHá»Ľi": 7619,
      "urs": 7620,
      "xuc": 7621,
      "Ġ109": 7622,
      "ĠBezos": 7623,
      "ĠhÄĥng": 7624,
      "ĠNay": 7625,
      "ĠJP": 7626,
      "ĠThÃŃch": 7627,
      "IN": 7628,
      "Ġ:": 7629,
      "ĠHáºłNH": 7630,
      "Ġá»¦ng": 7631,
      "arus": 7632,
      "ĠbÃ£": 7633,
      "Ġ117": 7634,
      "ĠPleiku": 7635,
      "dol": 7636,
      "eria": 7637,
      "ira": 7638,
      "Ġlá»į": 7639,
      "ĠThÃ¡nh": 7640,
      "%.\",\"": 7641,
      "ĠThom": 7642,
      "ĠPen": 7643,
      "ĠCÄĲVN": 7644,
      "ĠhÃ¡o": 7645,
      "cháº¡y": 7646,
      "ĠNgÃ´n": 7647,
      "Biá»ĥn": 7648,
      "Lá»ĩ": 7649,
      "Vin": 7650,
      "ĠNap": 7651,
      "Ġbá»Ľi": 7652,
      "ema": 7653,
      "ĠgiÆ¡": 7654,
      "ĠmÃłi": 7655,
      "thoai": 7656,
      "ĠTTTT": 7657,
      "ĠBundesliga": 7658,
      "ĠSerge": 7659,
      "Ġshop": 7660,
      "NHNN": 7661,
      "cia": 7662,
      "ĠRodri": 7663,
      "ĠGeorge": 7664,
      "EF": 7665,
      "ĠgÃµ": 7666,
      "ĠChÃ¹a": 7667,
      "ĠNho": 7668,
      "ĠTá»«ng": 7669,
      "ĠFrank": 7670,
      "Ġmá»ĭn": 7671,
      "OSE": 7672,
      "ĠBangkok": 7673,
      "Sá»Ń": 7674,
      "ĠRed": 7675,
      "kraine": 7676,
      "XB": 7677,
      "nick": 7678,
      "há»Ļ": 7679,
      "ĠLáº¡p": 7680,
      "Miá»ģn": 7681,
      "Ġcuá»ĵng": 7682,
      "ĠCháº¥n": 7683,
      "Ġ1983": 7684,
      "Iran": 7685,
      "ĠÆ¯á»Ľc": 7686,
      "Ġhá»©c": 7687,
      "cheon": 7688,
      "ĠÄĲÃ¡": 7689,
      "ĠÃģi": 7690,
      "sot": 7691,
      "ĠHealth": 7692,
      "áº®NG": 7693,
      "ĠÄĳÅ©a": 7694,
      "ĠSir": 7695,
      "house": 7696,
      "Cáº¥p": 7697,
      "ĠBá»ķ": 7698,
      "ideo": 7699,
      "Quá»³nh": 7700,
      "ĠRoma": 7701,
      "Ġthá»ĳn": 7702,
      "ian": 7703,
      "ÄĳÃ³ng": 7704,
      "Lan": 7705,
      "ĠTÃ´ng": 7706,
      "yong": 7707,
      "Ġson": 7708,
      "ĠHáº¡n": 7709,
      "ThÃªm": 7710,
      "Ġdang": 7711,
      "Ġgiáº±ng": 7712,
      "ĠChÄĥm": 7713,
      "Thay": 7714,
      "Ġfanpage": 7715,
      "Ġchen": 7716,
      "zech": 7717,
      "ĠphÃ¡c": 7718,
      "ĠKhÃ´i": 7719,
      "ÄĤN": 7720,
      "HÃ¬nh": 7721,
      "Ġ/": 7722,
      "ĠHOSE": 7723,
      "chez": 7724,
      "Ġmáº¹o": 7725,
      "Ġky": 7726,
      "ĠMacron": 7727,
      "ju": 7728,
      "ĠBal": 7729,
      "As": 7730,
      "ĠtÃ²": 7731,
      "ĠLebanon": 7732,
      "Ġ1984": 7733,
      "ĠCáºŃu": 7734,
      "Ġ107": 7735,
      "ĠTNG": 7736,
      "ĠTháº¯m": 7737,
      "LÃºc": 7738,
      "Ro": 7739,
      "ĠBT": 7740,
      "ÄĳÆ¡n": 7741,
      "bes": 7742,
      "ĠEri": 7743,
      "Há»£p": 7744,
      "Ńng": 7745,
      "erby": 7746,
      "?\",": 7747,
      "ĠmáºŃp": 7748,
      "Ġquo": 7749,
      "ĠTrÃ¢n": 7750,
      "ĠGlo": 7751,
      "quay": 7752,
      "160": 7753,
      "ĠCBCN": 7754,
      "á»ĮC": 7755,
      "ĠvÃ¡ch": 7756,
      "ĠdÃ©p": 7757,
      "Ġ106": 7758,
      "Ġngá»įc": 7759,
      "ĠBloomberg": 7760,
      "NÃ´ng": 7761,
      "ĠcÆ°á»£c": 7762,
      "ĠDy": 7763,
      "ĠmÆ°Æ¡ng": 7764,
      "tha": 7765,
      "Ġ102": 7766,
      "soat": 7767,
      "ĠmÃ¬n": 7768,
      "ĠAmer": 7769,
      "ĠMichael": 7770,
      "ngai": 7771,
      "ĠHae": 7772,
      "ĠKHÄĲT": 7773,
      "UB": 7774,
      "Ġtáº¡c": 7775,
      "ors": 7776,
      "âĢĿ...": 7777,
      "ilon": 7778,
      "ĠThoa": 7779,
      "Ġchá»ĳn": 7780,
      "âĢ¦.": 7781,
      "ĠbÃªtÃ´ng": 7782,
      "Ġphiáº¿n": 7783,
      "ÄĲÃło": 7784,
      "Ġrá»¥i": 7785,
      "tif": 7786,
      "BÃ©": 7787,
      "ĠCáº·p": 7788,
      "Ġxoa": 7789,
      "Trá»±c": 7790,
      "Ġlogistics": 7791,
      "nguon": 7792,
      "ĠTÃªn": 7793,
      "ĠnCoV": 7794,
      "trom": 7795,
      "Ġhá»ķng": 7796,
      "ampard": 7797,
      "vuc": 7798,
      "ĠÄĳoa": 7799,
      "ase": 7800,
      "ĠCatal": 7801,
      "MB": 7802,
      "SDLÄĲ": 7803,
      "Ġcáº©u": 7804,
      "Quyáº¿t": 7805,
      "ĠPalace": 7806,
      "ká»ĥ": 7807,
      "Ġkali": 7808,
      "ĠMÆ°a": 7809,
      "phe": 7810,
      "ĠAnton": 7811,
      "Ġ111": 7812,
      "ĠChá»©c": 7813,
      "Äĳá»Ļi": 7814,
      "BTC": 7815,
      "loyd": 7816,
      "Æ¯U": 7817,
      "ompeo": 7818,
      "cÃ´": 7819,
      "ĠAsia": 7820,
      "ĠLÃ¡i": 7821,
      "out": 7822,
      "ishi": 7823,
      "DÃ¢n": 7824,
      "BI": 7825,
      "2000": 7826,
      "gdd": 7827,
      "lac": 7828,
      "Truy": 7829,
      "ĠCTCP": 7830,
      "gddt": 7831,
      "Ġthá»īnh": 7832,
      "ĠÃģp": 7833,
      "ake": 7834,
      "NSND": 7835,
      "¨C": 7836,
      "Ġcong": 7837,
      "ÂłĠĠĠ": 7838,
      "ĠÄĳÃ´la": 7839,
      "ĠOlympia": 7840,
      "ĠCMND": 7841,
      "ye": 7842,
      "ĠGÃ³c": 7843,
      "ameshow": 7844,
      "ĠÄĳun": 7845,
      "ĠhÆ°ng": 7846,
      "LÆ°u": 7847,
      "Ġmá»ī": 7848,
      "ĠhÃ¡n": 7849,
      "ĠKháº©u": 7850,
      "ÄĲáº£ng": 7851,
      "Ġgiá»ģng": 7852,
      "ĠMatt": 7853,
      "ĠbÃªnh": 7854,
      "viá»ĩc": 7855,
      "ĠÃ³c": 7856,
      "ĠMáº¡c": 7857,
      "eting": 7858,
      "od": 7859,
      "won": 7860,
      "ĠXi": 7861,
      "Ġrá»¥ng": 7862,
      "ķi": 7863,
      "zuki": 7864,
      "ĠÄĲáºł": 7865,
      "ĠKur": 7866,
      "Di": 7867,
      "tÃ¬nh": 7868,
      "Ġnhá»Ļn": 7869,
      "Ġ104": 7870,
      "Syria": 7871,
      "Ġtáº¥p": 7872,
      "ĠNat": 7873,
      "chap": 7874,
      "Ãį": 7875,
      "Ġgai": 7876,
      "ĠhÃª": 7877,
      "ĠUá»ĳng": 7878,
      "CAO": 7879,
      "cáº¥p": 7880,
      "ĠFi": 7881,
      "Ġngoáº¡n": 7882,
      "cs": 7883,
      "ombia": 7884,
      "bhxh": 7885,
      "New": 7886,
      "ngheo": 7887,
      "esh": 7888,
      "ĠNishino": 7889,
      "Ġá»§i": 7890,
      "ĠWin": 7891,
      "ĠStar": 7892,
      "?âĢĿ": 7893,
      "Ġtáº©u": 7894,
      "ĠÄĳá»¥c": 7895,
      "CÃ¢y": 7896,
      "ĠWeb": 7897,
      "Ġchuá»ĵng": 7898,
      "999": 7899,
      "ys": 7900,
      "Ġmassage": 7901,
      "ĠNHá»": 7902,
      "ĠPVC": 7903,
      "Ġlá»Ļt": 7904,
      "ĠtrÅ©ng": 7905,
      "ĠBINH": 7906,
      "ĠVÃłnh": 7907,
      "tphone": 7908,
      "ĠBÃ´ng": 7909,
      "Ġtáº¡t": 7910,
      "ĠvÃ²i": 7911,
      "ChÆ°a": 7912,
      "ĠGiá»¯": 7913,
      "celo": 7914,
      "jo": 7915,
      "martphone": 7916,
      "ĠNHá»®NG": 7917,
      "AX": 7918,
      "Tam": 7919,
      "há»Ĺ": 7920,
      "ĠChang": 7921,
      "ĠHDBank": 7922,
      "ĠOpen": 7923,
      "ĠnhÆ°á»£c": 7924,
      "Ġráº«y": 7925,
      "este": 7926,
      "ĠUtd": 7927,
      "ĠHollywood": 7928,
      "Sa": 7929,
      "báº±ng": 7930,
      "ĠUng": 7931,
      "ĠÃģO": 7932,
      "ĠMax": 7933,
      "ĠTRáº®NG": 7934,
      "Ġscandal": 7935,
      "Ġdáº¥y": 7936,
      "ĠFox": 7937,
      "stal": 7938,
      "ĠRÄĥng": 7939,
      "ĠHye": 7940,
      "Bá»ĳ": 7941,
      "ĠBlues": 7942,
      "keo": 7943,
      "ĠVictor": 7944,
      "%);": 7945,
      "Ġnang": 7946,
      "Ġcháº£": 7947,
      "Ġkhiáº¿m": 7948,
      "Ġquáº¥t": 7949,
      "VÃĮ": 7950,
      "vui": 7951,
      "ĠBiáº¿t": 7952,
      "ĠghÃ©t": 7953,
      "ĠÃºt": 7954,
      "ÄĲÄĥng": 7955,
      "aint": 7956,
      "ĠCzech": 7957,
      "Ġ240": 7958,
      "ĠChuyá»ĩn": 7959,
      "ĠLÃłng": 7960,
      "ĠVu": 7961,
      "ĠChá»¯": 7962,
      "ĠMazda": 7963,
      "chá»ĳng": 7964,
      "?\"\".": 7965,
      "united": 7966,
      "ĠKT": 7967,
      "ĠTuchel": 7968,
      "Ġgieo": 7969,
      "Ġlogic": 7970,
      "LA": 7971,
      "ĠChile": 7972,
      "ĠDubai": 7973,
      "ĠsuÃ½t": 7974,
      "ĠÄĲáºłT": 7975,
      "ĠlÆ°": 7976,
      "ĠlÃºng": 7977,
      "\"\";": 7978,
      "Cháº¥t": 7979,
      "ĠDaniel": 7980,
      "TÃ²a": 7981,
      "Ġ114": 7982,
      "ĠThao": 7983,
      "ÄĲáº·c": 7984,
      "ull": 7985,
      "gÃ¢y": 7986,
      "ud": 7987,
      "ĠHÆ°á»Łng": 7988,
      "LO": 7989,
      "ĠSar": 7990,
      "ĠAp": 7991,
      "TrÆ°a": 7992,
      "ĠchÃ³t": 7993,
      "Ġinch": 7994,
      "mg": 7995,
      "ĠHoSE": 7996,
      "ĠMoham": 7997,
      "ĠcÃºc": 7998,
      "vá»¥": 7999,
      "ĠFin": 8000,
      "huynh": 8001,
      "ĠÄĲÃĮNH": 8002,
      "end": 8003,
      "ĠIX": 8004,
      "Kiá»ģu": 8005,
      "Ġplay": 8006,
      "ĠTRÆ¯á»ľNG": 8007,
      "ĠBoeing": 8008,
      "ĠthiÃª": 8009,
      "ĠBao": 8010,
      "Há»ĩ": 8011,
      "cus": 8012,
      "jax": 8013,
      "Barcelona": 8014,
      "á»©": 8015,
      "ĠTÆ°á»Łng": 8016,
      "ĠrÃ£nh": 8017,
      "cuá»Ļc": 8018,
      "ĠBÃ¡t": 8019,
      "Ġthiá»ģu": 8020,
      "ĠShe": 8021,
      "phien": 8022,
      "NhÆ°ng": 8023,
      "Ġbitcoin": 8024,
      "ĠGateway": 8025,
      "ĠdÃ¬": 8026,
      "ĠchÃŃp": 8027,
      "tech": 8028,
      "iez": 8029,
      "ĠAwards": 8030,
      "Ġxá»ķ": 8031,
      "ĠVitamin": 8032,
      "ĠLÆ¯U": 8033,
      "ĠShi": 8034,
      "Ġnhá»§": 8035,
      "Indonesia": 8036,
      "má»Ł": 8037,
      "ĠhÃ©t": 8038,
      "ĠTrá»¥": 8039,
      "ĠToÃł": 8040,
      "Ukraina": 8041,
      "kÃŃp": 8042,
      "suáº¥t": 8043,
      "ĠSÆ¡": 8044,
      "ĠÄĲoáº¡n": 8045,
      "Ġkháº¥n": 8046,
      "ĠRÃło": 8047,
      "non": 8048,
      "ĠrÅ©": 8049,
      "teta": 8050,
      "wang": 8051,
      "ĠTráº£i": 8052,
      "ora": 8053,
      "ole": 8054,
      "iesel": 8055,
      "CÃ¡t": 8056,
      "Sáº£n": 8057,
      "gáº§n": 8058,
      "ĠvÃ¡c": 8059,
      "eak": 8060,
      "aya": 8061,
      "kV": 8062,
      "Ġsáº§u": 8063,
      "uk": 8064,
      "ĠlÃ³t": 8065,
      "amilk": 8066,
      "thuat": 8067,
      "Ġkhá»ĳn": 8068,
      "áºµn": 8069,
      "Ġxay": 8070,
      "ĠEs": 8071,
      "phieu": 8072,
      "115": 8073,
      "ĠLin": 8074,
      "luan": 8075,
      "báº£n": 8076,
      "cÃ²n": 8077,
      "res": 8078,
      "ĠvÃ©t": 8079,
      "ĠbÃ©n": 8080,
      "ĠTáº¡m": 8081,
      "ĠrÃ¹a": 8082,
      "ĠLew": 8083,
      "ragon": 8084,
      "Sai": 8085,
      "ym": 8086,
      "ĠtÆ°Æ¡": 8087,
      "Ġgam": 8088,
      "ĠHáº¡ng": 8089,
      "ĠTLV": 8090,
      "Ġgo": 8091,
      "ĠPompeo": 8092,
      "ĠAbe": 8093,
      "ĠÄĳan": 8094,
      "sterdam": 8095,
      "ĠThomas": 8096,
      "ngoc": 8097,
      "ĠHungary": 8098,
      "Ġkháº¯t": 8099,
      "Ã²m": 8100,
      "Ġngoáº·t": 8101,
      "Dá»": 8102,
      "Nguá»ĵn": 8103,
      "uarez": 8104,
      "sin": 8105,
      "thá»§": 8106,
      "Pháº£i": 8107,
      "games": 8108,
      "nes": 8109,
      "ĠÄĳiÃªu": 8110,
      "ÄĲá»Ĺ": 8111,
      "Ġthoa": 8112,
      "Ġnuá»ĳt": 8113,
      "ÄĲB": 8114,
      "ÄĲK": 8115,
      "Chia": 8116,
      "ato": 8117,
      "ĠÄĳáº£": 8118,
      "ĠCá»ĳng": 8119,
      "enz": 8120,
      "Ġná»ĥ": 8121,
      "ĠvÃ¡n": 8122,
      "Táº¡m": 8123,
      "360": 8124,
      "Ġráº§m": 8125,
      "ÄĲÃªm": 8126,
      "Ãĵ": 8127,
      "Ġháº¥u": 8128,
      "Tráº¡m": 8129,
      "ĠHá»Ļ": 8130,
      "ĠâĢ¦": 8131,
      "PHÃļC": 8132,
      ".\"\"": 8133,
      "ĠCur": 8134,
      "Ġquyáº¿n": 8135,
      "Ġngá»©a": 8136,
      "Äĳáº·c": 8137,
      "Trá»£": 8138,
      "AFC": 8139,
      "ĠLÆ°": 8140,
      "ĠNháº¡c": 8141,
      "jk": 8142,
      "ĠLáº¥y": 8143,
      "ĠChÃ¡u": 8144,
      "urgen": 8145,
      "yo": 8146,
      "ĠNÃ´": 8147,
      "if": 8148,
      "Há»ĴNG": 8149,
      "Ġkhá»ī": 8150,
      "ĠcÃłphÃª": 8151,
      "ĠSanchez": 8152,
      "Báº¡c": 8153,
      "Tiá»ĥu": 8154,
      "arm": 8155,
      "CÃ²n": 8156,
      "EM": 8157,
      "Ġnhiáº¿p": 8158,
      "ĠTai": 8159,
      "247": 8160,
      "ĠFranc": 8161,
      "yun": 8162,
      "esla": 8163,
      "ĠWol": 8164,
      "ĠSevilla": 8165,
      "ĠPou": 8166,
      "VÃłng": 8167,
      "ĠmÃ´ng": 8168,
      "ĠmÆ°á»Ŀi": 8169,
      "ĠBá»©c": 8170,
      "PhÃ¡o": 8171,
      "Ġláº©n": 8172,
      "ĠCAND": 8173,
      "estine": 8174,
      "rat": 8175,
      "yang": 8176,
      "ĠTháº¡c": 8177,
      "ĠSáº§m": 8178,
      "tÃªn": 8179,
      "mÃ£": 8180,
      "Ġdáº¡t": 8181,
      "ĠLux": 8182,
      "Chuyá»ĩn": 8183,
      "entine": 8184,
      "Ġbá»įt": 8185,
      "ĠPet": 8186,
      "ĠThiá»ĩu": 8187,
      "ĠhÃ³c": 8188,
      "Ġ210": 8189,
      "Ġ2024": 8190,
      "ĠThá»©c": 8191,
      "aca": 8192,
      "chett": 8193,
      "ĠCang": 8194,
      "ĠÄĲÄĥk": 8195,
      "ĠnÃłn": 8196,
      "Ġgáº¥u": 8197,
      "ĠTrá»Ł": 8198,
      "Táº·ng": 8199,
      "Ġmáº¯ng": 8200,
      "ĠDam": 8201,
      "Ġ175": 8202,
      "Máº·t": 8203,
      "Olymp": 8204,
      "ĠnÃ¢u": 8205,
      "ix": 8206,
      "ĠDis": 8207,
      "ĠOne": 8208,
      "Chá»£": 8209,
      "ĠÄĲang": 8210,
      "emen": 8211,
      "Ġxáº»": 8212,
      "ĠDÃ²ng": 8213,
      "ĠUkraine": 8214,
      "ĠPHI": 8215,
      "gas": 8216,
      "ĠsÃ¢m": 8217,
      "ĠgiÃ¡ng": 8218,
      "ĠLampard": 8219,
      "Ġ123": 8220,
      "Ġthen": 8221,
      "Malaysia": 8222,
      "Ná»Ļi": 8223,
      "ĠgÃ£": 8224,
      "ĠÄĲá»īnh": 8225,
      "Ġeo": 8226,
      "Láº§n": 8227,
      "Ġand": 8228,
      "rystal": 8229,
      "kel": 8230,
      "ĠVá»¹": 8231,
      "ĠMáº¡ng": 8232,
      "Ġmm": 8233,
      "chiem": 8234,
      "sad": 8235,
      "ĠÄĲá»Ļc": 8236,
      "Ġ230": 8237,
      "ĠTruy": 8238,
      "ĠEco": 8239,
      "nhiá»ģu": 8240,
      "ĠÄĳÃ²": 8241,
      "ĠPlay": 8242,
      "Sá»ķ": 8243,
      "ĠdiÃª": 8244,
      "ĠHaaland": 8245,
      "ĠThÃºc": 8246,
      "áº·m": 8247,
      "ĠCNTT": 8248,
      "tain": 8249,
      "ĠColombia": 8250,
      "Ġngáº§n": 8251,
      "ĠKitco": 8252,
      "ĠÄĲá»©ng": 8253,
      "âĢ¦)": 8254,
      "kha": 8255,
      "ĠWales": 8256,
      "iezmann": 8257,
      "ĠLÃ¡ng": 8258,
      "ond": 8259,
      "Ġkeo": 8260,
      "Ġquáº¿": 8261,
      "ĠThuá»µ": 8262,
      "aki": 8263,
      "dev": 8264,
      "ĠhÃ²n": 8265,
      "ĠSmart": 8266,
      "Ġsolo": 8267,
      "ĠSUV": 8268,
      "SÃ¡ch": 8269,
      "ĠDiÃªn": 8270,
      "Ġcabin": 8271,
      "ĠKhÃ¡c": 8272,
      "Jo": 8273,
      "hÃłnh": 8274,
      "Ġle": 8275,
      "edan": 8276,
      "ÃģNH": 8277,
      "zakh": 8278,
      "ĠDoll": 8279,
      "Ġcaosu": 8280,
      "Ġ1979": 8281,
      "ennie": 8282,
      "ĠJPY": 8283,
      "ĠGiá»ĳng": 8284,
      "Cáº£i": 8285,
      "ĠDuáº©n": 8286,
      "xang": 8287,
      "Ġváº¯t": 8288,
      "ĠTiá»ĩp": 8289,
      "ĠTÃ¹y": 8290,
      "treo": 8291,
      "TLÄĲ": 8292,
      "ĠkÃ¬m": 8293,
      "báº¥t": 8294,
      "ĠTang": 8295,
      "ĠTik": 8296,
      "ĠchiÃª": 8297,
      "âĢĿ:": 8298,
      "ĠMartin": 8299,
      "ĠKyo": 8300,
      "pháº£i": 8301,
      "ĠMekong": 8302,
      "Le": 8303,
      "gor": 8304,
      "ĠÄĲak": 8305,
      "ĠMua": 8306,
      "ĠGard": 8307,
      "ĠBrunei": 8308,
      "corona": 8309,
      "ĠsÃ¡n": 8310,
      "ĠNXB": 8311,
      "unn": 8312,
      "ĠODA": 8313,
      "view": 8314,
      "Báº±ng": 8315,
      "SÃ´ng": 8316,
      "ĠSuarez": 8317,
      "ĠNguyÃª": 8318,
      "Ġgiáº¥m": 8319,
      "ĠRich": 8320,
      "ĠChá»ĵng": 8321,
      "zakhstan": 8322,
      "ĠMiáº¿u": 8323,
      "ashford": 8324,
      "press": 8325,
      "ĠVill": 8326,
      "210": 8327,
      "ASEAN": 8328,
      "ĠDollar": 8329,
      "Ġlam": 8330,
      "Ġmiá»ĩt": 8331,
      "ĠFlorida": 8332,
      "ĠxuÃ´i": 8333,
      "Ġnhá»¥c": 8334,
      "ĠTráº£ng": 8335,
      "ÄĲÃ¬nh": 8336,
      "gt": 8337,
      "Nháº±m": 8338,
      "ĠBenz": 8339,
      "ĠcÃło": 8340,
      "ĠSc": 8341,
      "ĠliÃªng": 8342,
      "ĠloÃ©t": 8343,
      "ĠÆ°á»Ľp": 8344,
      "ĠMW": 8345,
      "oko": 8346,
      "wai": 8347,
      "bá»ı": 8348,
      "bÃł": 8349,
      "Ġngá»Ńa": 8350,
      "ĠtrÃ¹": 8351,
      "ĠsÃ²ng": 8352,
      "board": 8353,
      "ĠForbes": 8354,
      "log": 8355,
      "ghton": 8356,
      "826": 8357,
      "mam": 8358,
      "zig": 8359,
      "ĠBolero": 8360,
      "ĠrÆ°á»Ľc": 8361,
      "quen": 8362,
      "Ġgá»Ļi": 8363,
      "Ġnguyá»ĩt": 8364,
      "Xin": 8365,
      "ĠShop": 8366,
      "ĠGolf": 8367,
      "ĠÃļt": 8368,
      "ĠHot": 8369,
      "NESCO": 8370,
      "HuÃ¢n": 8371,
      "GiÃ£n": 8372,
      "ÄĲTV": 8373,
      "chettino": 8374,
      "sam": 8375,
      "Ġgram": 8376,
      "ĠSuzuki": 8377,
      "ĠCBCNV": 8378,
      "Hiá»ĩu": 8379,
      "ĠcÆ°a": 8380,
      "ĠQuáº¥t": 8381,
      "ĠhÃ£m": 8382,
      "gá»įi": 8383,
      "ĠĠĠĠĠĠĠĠĠ": 8384,
      "ĠArteta": 8385,
      "PhÃºc": 8386,
      "VTV": 8387,
      "XD": 8388,
      "tar": 8389,
      "ĠvÆ°": 8390,
      "ĠCá»Ń": 8391,
      "KhÃ¡m": 8392,
      "TÃ¢m": 8393,
      "ĠClub": 8394,
      "ĠNgo": 8395,
      "ĠFutsal": 8396,
      "ream": 8397,
      "HN": 8398,
      "PhiÃªn": 8399,
      "140": 8400,
      "ĠEximbank": 8401,
      "ii": 8402,
      "ĠCOV": 8403,
      "ĠÄĲá»ĳc": 8404,
      "itsu": 8405,
      "Ġsá»Łi": 8406,
      "Ã¨m": 8407,
      "906": 8408,
      "GV": 8409,
      "ĠChÄĥn": 8410,
      "ipzig": 8411,
      "Gá»": 8412,
      "ĠYang": 8413,
      "750": 8414,
      "ĠLou": 8415,
      "ĠThá»¥": 8416,
      "Thá»§y": 8417,
      "Ġ360": 8418,
      "ĠVPBank": 8419,
      "OC": 8420,
      "let": 8421,
      "Tráº£": 8422,
      "Triá»ĥn": 8423,
      "Ġ145": 8424,
      "ĠHari": 8425,
      "âĢ¦âĢĿ.": 8426,
      "Ġgá»ĳm": 8427,
      "ĠMH": 8428,
      "Chuyáº¿n": 8429,
      "dh": 8430,
      "ĠkhiÃªu": 8431,
      "Ġgiá»¥c": 8432,
      "ĠXÄĥng": 8433,
      "Al": 8434,
      "ĠTur": 8435,
      "tinho": 8436,
      "Ġser": 8437,
      "ĠDá»¯": 8438,
      "ĠRap": 8439,
      "rut": 8440,
      "ĠID": 8441,
      "ĠÄĳao": 8442,
      "ĠvÃ¡y": 8443,
      "ĠÄĲáº¥u": 8444,
      "ĠSel": 8445,
      "onia": 8446,
      "Ġshipper": 8447,
      "ĠLÅ©": 8448,
      "ĠMÃ¬nh": 8449,
      "ĠNapoli": 8450,
      "vuong": 8451,
      "ĠBec": 8452,
      "ĠJun": 8453,
      "130": 8454,
      "cáº§u": 8455,
      "cÃ²": 8456,
      "Ġrá»ĵng": 8457,
      "Cá»©u": 8458,
      "Ġgene": 8459,
      "ĠngáºŃm": 8460,
      "Tiáº¿ng": 8461,
      "cer": 8462,
      "chiáº¿n": 8463,
      "ami": 8464,
      "290": 8465,
      "ĠÂłĠĠ": 8466,
      "Tuáº§n": 8467,
      "facebook": 8468,
      "Ġ118": 8469,
      "ĠMS": 8470,
      "Ã©m": 8471,
      "Ġ1981": 8472,
      "ĠxoÃ¡": 8473,
      "ĠJuve": 8474,
      "KhÃ¡ch": 8475,
      "Ġcáº¥y": 8476,
      "ĠGar": 8477,
      "ĠTexas": 8478,
      "ĠWall": 8479,
      "ĠKoeman": 8480,
      "ĠÃ¢u": 8481,
      "ĠHuyáº¿t": 8482,
      "ĠÄĲá»ģn": 8483,
      "ĠMail": 8484,
      "Vietnam": 8485,
      "GB": 8486,
      "Google": 8487,
      "táºŃp": 8488,
      "ĠDiá»ĩn": 8489,
      "ĠPalestine": 8490,
      "ĠResort": 8491,
      "rac": 8492,
      "ck": 8493,
      "Bá»ı": 8494,
      "Ġcm": 8495,
      "GTVT": 8496,
      "TiÃªu": 8497,
      "ráº¥t": 8498,
      "ĠBá»ĳn": 8499,
      "ĠMÃł": 8500,
      "ĠMos": 8501,
      "ĠnhÄĥn": 8502,
      "á»ķn": 8503,
      "BHYT": 8504,
      "TÃ¡o": 8505,
      "Tok": 8506,
      "ĠBur": 8507,
      "ĠLá»¯": 8508,
      "ĠGea": 8509,
      "ĠCá»±c": 8510,
      "Ġnáº¡o": 8511,
      "ĠngÃłng": 8512,
      "try": 8513,
      "remlin": 8514,
      "ĠBelarus": 8515,
      "PGS": 8516,
      "Ġdiesel": 8517,
      "ĠSáº¯p": 8518,
      "trá»±c": 8519,
      "ĠHNX": 8520,
      "lot": 8521,
      "nghia": 8522,
      "ĠTor": 8523,
      "Ġngáº¡t": 8524,
      "ĠxÃłi": 8525,
      "ery": 8526,
      "vedev": 8527,
      "thÃ´n": 8528,
      "trick": 8529,
      "ĠXHTT": 8530,
      "YÃªu": 8531,
      "chuyÃªn": 8532,
      "xÃ©t": 8533,
      "aliban": 8534,
      "Chu": 8535,
      "SVN": 8536,
      "TO": 8537,
      "ĠrÃ´": 8538,
      "\"\"\",": 8539,
      "ER": 8540,
      "bung": 8541,
      "ĠSaint": 8542,
      "Ġtá»¥y": 8543,
      "PhÃ¢n": 8544,
      "ĠNV": 8545,
      "Ġnhá»ĵi": 8546,
      "ĠMicro": 8547,
      "ĠGe": 8548,
      "atch": 8549,
      "ĠchÃ¨o": 8550,
      "ĠKhoÃ¡ng": 8551,
      "ĠBom": 8552,
      "ĠWar": 8553,
      "ĠAlexander": 8554,
      "517": 8555,
      "Ġháº¡m": 8556,
      "ĠAjax": 8557,
      "aly": 8558,
      "Ġ1976": 8559,
      "ĠGlobal": 8560,
      "\"\"...": 8561,
      "Ġ270": 8562,
      "ĠkÃ¨o": 8563,
      "Pleiku": 8564,
      "khá»Łi": 8565,
      "ĠluÃ¢": 8566,
      "vani": 8567,
      "745": 8568,
      "Máº¥t": 8569,
      "ĠlÃ©n": 8570,
      "ĠNSDLÄĲ": 8571,
      "ĠTimor": 8572,
      "Arsenal": 8573,
      "hue": 8574,
      "ĠgÄĥng": 8575,
      "ĠxÃło": 8576,
      "ĠVÃ´": 8577,
      "ĠKop": 8578,
      "emb": 8579,
      "ĠhÃŃt": 8580,
      "ĠSuá»ĳt": 8581,
      "ĠRamos": 8582,
      "ĠlÆ°Æ¡": 8583,
      "ĠXÃŃ": 8584,
      "oshi": 8585,
      "ĠSpaceX": 8586,
      "ĠGalaxy": 8587,
      "sá»ĳng": 8588,
      "vá»«a": 8589,
      "ydney": 8590,
      "Ra": 8591,
      "cÄĥn": 8592,
      "Ġsáº¥y": 8593,
      "Ġcháº±ng": 8594,
      "cháº¥t": 8595,
      "ĠSoo": 8596,
      "chÃŃnh": 8597,
      "les": 8598,
      "ĠMÃ£i": 8599,
      "576": 8600,
      "Ġnilon": 8601,
      "ĠKhe": 8602,
      "ĠIncheon": 8603,
      "630": 8604,
      "ĠGeorgia": 8605,
      "Olympic": 8606,
      "ĠDie": 8607,
      "Ġ650": 8608,
      "ĠHold": 8609,
      "617": 8610,
      "tuyá»ĥn": 8611,
      ").,\"": 8612,
      "±u": 8613,
      "ĠchÃ¡o": 8614,
      "ĠCÃ¡nh": 8615,
      "jan": 8616,
      "ĠKan": 8617,
      "ĠGAS": 8618,
      "ĠGiáº£ng": 8619,
      "IDS": 8620,
      "ĠTrá»£": 8621,
      "618": 8622,
      "nhÃ³m": 8623,
      "2007": 8624,
      "Máº¡ng": 8625,
      "imex": 8626,
      "nÆ°á»Ľc": 8627,
      "rm": 8628,
      "Ġgiáº·c": 8629,
      "arreal": 8630,
      "Tranh": 8631,
      "areth": 8632,
      "Ġham": 8633,
      "Ġ126": 8634,
      "ury": 8635,
      "del": 8636,
      "ĠnhÃ´m": 8637,
      "ĠRÃµ": 8638,
      "QuÃ¡ch": 8639,
      "soft": 8640,
      "cuop": 8641,
      "Tottenham": 8642,
      "lÃ£i": 8643,
      "ım": 8644,
      "ĠAmerica": 8645,
      "ChÃŃ": 8646,
      "905": 8647,
      "ĠKKT": 8648,
      "ĠGol": 8649,
      "NGUYÃĬN": 8650,
      "ĠHill": 8651,
      "ĠGÆ°Æ¡m": 8652,
      "LÄĲTBXH": 8653,
      "ssID": 8654,
      "bá»Ļ": 8655,
      "ĠMot": 8656,
      "ĠKremlin": 8657,
      "ĠTRIáº¾T": 8658,
      "lÆ°á»£t": 8659,
      "ĠPVF": 8660,
      "ĠEnter": 8661,
      "ĠVá»įng": 8662,
      "RE": 8663,
      "XVN": 8664,
      "Ġbá»ĩ": 8665,
      "eno": 8666,
      "guire": 8667,
      "Ġmiá»ĩn": 8668,
      "ĠVá»ĳn": 8669,
      "liam": 8670,
      "gs": 8671,
      "ĠÂłÂł": 8672,
      "ĠÃªm": 8673,
      "ĠThuá»ĳc": 8674,
      "ist": 8675,
      "á»¦ng": 8676,
      "ĠnÃ¡o": 8677,
      "Æ°á»Ŀm": 8678,
      "ĠRiver": 8679,
      "930": 8680,
      "HÃ£ng": 8681,
      "ĠLuc": 8682,
      "Ġ2045": 8683,
      "Ġvisa": 8684,
      "Ġváº¡": 8685,
      "ĠCPTPP": 8686,
      "ĠGold": 8687,
      "TháºŃt": 8688,
      "Nghi": 8689,
      "Ġ190": 8690,
      "phia": 8691,
      "máº¥t": 8692,
      "\"\":": 8693,
      "Ġbá»ĭt": 8694,
      "IÃĬN": 8695,
      "Ġá»ıi": 8696,
      "ĠFloyd": 8697,
      "sÃ¡ng": 8698,
      "áº¢I": 8699,
      "110": 8700,
      "ĠUniverse": 8701,
      "ĠIbra": 8702,
      "gmail": 8703,
      "Ġnáº¥y": 8704,
      "Ġsá»¡": 8705,
      "cov": 8706,
      "Bay": 8707,
      "Ġsmartphone": 8708,
      "ĠPharma": 8709,
      "uu": 8710,
      "ĠThÆ¡m": 8711,
      "ĠxuÃ¢": 8712,
      "ĠErik": 8713,
      "Tá»Ŀ": 8714,
      "ruguay": 8715,
      "Ġz": 8716,
      "ĠSk": 8717,
      "vÃ¬": 8718,
      "Ġliá»ħu": 8719,
      "ĠMedia": 8720,
      "Ġ550": 8721,
      "Ġrá»ħ": 8722,
      "825": 8723,
      "BIDV": 8724,
      "Ġbe": 8725,
      "ĠVH": 8726,
      "ĠTNGT": 8727,
      "Ġváº§n": 8728,
      "ĠvÃ´i": 8729,
      "807": 8730,
      "bs": 8731,
      "Ġtuo": 8732,
      "ĠThÃ´": 8733,
      "ĠFernand": 8734,
      "zz": 8735,
      "ĠMiÃªu": 8736,
      "Ġnáº£n": 8737,
      "Ġcháº£o": 8738,
      "ĠKHCN": 8739,
      "ĠGriezmann": 8740,
      "buc": 8741,
      "buon": 8742,
      "ĠHun": 8743,
      "chá»ĭ": 8744,
      "Singapore": 8745,
      "Ġáº©u": 8746,
      "ĠTÃŃch": 8747,
      "ext": 8748,
      "IT": 8749,
      "NÃ³i": 8750,
      "ĠFeder": 8751,
      "ĠvÃ¡": 8752,
      "chÃ": 8753,
      "med": 8754,
      "Ġ155": 8755,
      "TÃ¡c": 8756,
      "jin": 8757,
      "Ġsáº¥u": 8758,
      "Ġnhuyá»ħn": 8759,
      "ĠÄĲáº§m": 8760,
      "ĠGame": 8761,
      "...)": 8762,
      "ĠnhÃ¡i": 8763,
      "Ġtoan": 8764,
      "laza": 8765,
      "ĠPhá»ķi": 8766,
      "dar": 8767,
      "ĠUÃ´ng": 8768,
      "ates": 8769,
      "ĠAmsterdam": 8770,
      "ĠHÃ´": 8771,
      "ĠDÄ©nh": 8772,
      "teur": 8773,
      "Ġgáº¯m": 8774,
      "ĠngÃ³ng": 8775,
      "Ġsá»Ŀ": 8776,
      "ĠPCTT": 8777,
      "KD": 8778,
      "tá»ĳ": 8779,
      "ĠNik": 8780,
      "âĢ¦âĢĿ": 8781,
      "ĠSpurs": 8782,
      "pal": 8783,
      "ret": 8784,
      "Ġbáº§m": 8785,
      "ĠBro": 8786,
      "uma": 8787,
      "ĠLim": 8788,
      "Quáº£n": 8789,
      "615": 8790,
      "máº¹": 8791,
      "ĠHeung": 8792,
      "ngon": 8793,
      "ĠVel": 8794,
      "Miss": 8795,
      "No": 8796,
      "nua": 8797,
      "ĠKam": 8798,
      "230": 8799,
      "830": 8800,
      "rmone": 8801,
      "AD": 8802,
      "syria": 8803,
      "CSGT": 8804,
      "ĨNH": 8805,
      "kenh": 8806,
      "Láº¡m": 8807,
      "Máº¹o": 8808,
      "¨n": 8809,
      "ĠCháº¯c": 8810,
      "IND": 8811,
      "ĠBá»ĨNH": 8812,
      "''.": 8813,
      "á»Ŀi": 8814,
      "ĠdÃ¢": 8815,
      "614": 8816,
      "CI": 8817,
      "Ġuá»ĳn": 8818,
      "ĠbÆ°á»Ľu": 8819,
      "ĠCou": 8820,
      "Ġlá»¥a": 8821,
      "HCSXH": 8822,
      "588": 8823,
      "ĠbÄĥ": 8824,
      "Ġchá»Ľp": 8825,
      "Ġráº¡n": 8826,
      "Ġmadrid": 8827,
      "Quáº¿": 8828,
      "607": 8829,
      "Ġsim": 8830,
      "Ġhttp": 8831,
      "2030": 8832,
      "ĠRashford": 8833,
      "sky": 8834,
      "ĠÄĲÃ¡n": 8835,
      "oni": 8836,
      "ime": 8837,
      "926": 8838,
      "luyen": 8839,
      "636": 8840,
      "ĠAki": 8841,
      "ĠUV": 8842,
      "ĠHoáº±ng": 8843,
      "Truyá»ģn": 8844,
      "Ġcháº£i": 8845,
      "ĠSea": 8846,
      "ĠQuá»·": 8847,
      "Ġ750": 8848,
      "ids": 8849,
      "PN": 8850,
      "180": 8851,
      "Thiáº¿t": 8852,
      "uyne": 8853,
      "ĠAh": 8854,
      "thá»©": 8855,
      "Má»įi": 8856,
      "ĠKhÃ¡n": 8857,
      "ĠvÃµng": 8858,
      "Uá»²NH": 8859,
      "608": 8860,
      "Ġ1970": 8861,
      "ĠcuÃ´": 8862,
      "hut": 8863,
      "wice": 8864,
      "ĠPochettino": 8865,
      "ĠrÃ£": 8866,
      "ĠchoÃ¡ng": 8867,
      "ĠDA": 8868,
      "ĠUNESCO": 8869,
      "135": 8870,
      "Ġtá»ĭ": 8871,
      "ĠmuÃ´n": 8872,
      "909": 8873,
      "TD": 8874,
      "ĠSá»ķ": 8875,
      "dowski": 8876,
      "thÃŃ": 8877,
      "ĠTy": 8878,
      "ĠXu": 8879,
      "eek": 8880,
      "fone": 8881,
      "vleague": 8882,
      "ĠSung": 8883,
      "zio": 8884,
      "ĠTiáº¿t": 8885,
      "ĠxÃ©": 8886,
      "ĠLau": 8887,
      "ĠXVI": 8888,
      "Ãµm": 8889,
      "lott": 8890,
      "fer": 8891,
      "hiep": 8892,
      "ĠZel": 8893,
      "730": 8894,
      "XY": 8895,
      "ĠVinamilk": 8896,
      "746": 8897,
      "vis": 8898,
      "ĠHarris": 8899,
      "ĠOscar": 8900,
      "phá»¥": 8901,
      "ĠLiá»ħu": 8902,
      "ĠloÃ£ng": 8903,
      "ĠDá»±a": 8904,
      "Lá»Ŀi": 8905,
      "ensky": 8906,
      "ĠRangnick": 8907,
      "ĠBenzema": 8908,
      "220": 8909,
      "ĠdÆ°ng": 8910,
      "tuyet": 8911,
      "748": 8912,
      "ĠPac": 8913,
      "ĠStre": 8914,
      "ÄĲÄĤNG": 8915,
      "ĠYemen": 8916,
      "ĠLeipzig": 8917,
      "ĠWilliam": 8918,
      "625": 8919,
      "ĠmÃŃt": 8920,
      "ĠPháº£n": 8921,
      "NgÃ´": 8922,
      "INDEX": 8923,
      "Fed": 8924,
      "los": 8925,
      "blackpink": 8926,
      "876": 8927,
      "isoo": 8928,
      "ĠPasteur": 8929,
      "809": 8930,
      "ĠKazakhstan": 8931,
      "nuoi": 8932,
      "ĠTesla": 8933,
      "ĠTru": 8934,
      "ĠTranh": 8935,
      "evin": 8936,
      "VG": 8937,
      "nÆ¡i": 8938,
      "810": 8939,
      "806": 8940,
      "Ġbolero": 8941,
      "ĠBMW": 8942,
      "iro": 8943,
      "ĠLigue": 8944,
      "ĠCapitol": 8945,
      "920": 8946,
      "Ju": 8947,
      "ĠcÃ²": 8948,
      "ĠHUá»²NH": 8949,
      "phao": 8950,
      "ĠMedvedev": 8951,
      "829": 8952,
      "ĨĴ": 8953,
      "ĠcÃły": 8954,
      "Ġchá»¯ng": 8955,
      "ĠMÃ¹i": 8956,
      "Trá»įng": 8957,
      "779": 8958,
      "805": 8959,
      "ĠCos": 8960,
      "tháº§n": 8961,
      "ĠLá»Ľn": 8962,
      "........": 8963,
      "579": 8964,
      "815": 8965,
      "Bo": 8966,
      "ĠTGÄĲ": 8967,
      "Ġdiá»ĩu": 8968,
      "ĠBiá»ĥu": 8969,
      "ĠVai": 8970,
      "Ex": 8971,
      "ĠrÃ¢": 8972,
      "ĠGio": 8973,
      "CMO": 8974,
      "mÃ´n": 8975,
      "ĠdÃ¨": 8976,
      "Ġngháº¹t": 8977,
      "Ġcuá»Ļn": 8978,
      "ĠLouis": 8979,
      "776": 8980,
      "Ġdai": 8981,
      "ĠTrÃ¡nh": 8982,
      "450": 8983,
      "rÃ´ng": 8984,
      "ÄĲÆ¡n": 8985,
      "ĠKÃªnh": 8986,
      "804": 8987,
      "175": 8988,
      "khen": 8989,
      "dric": 8990,
      "vá»£": 8991,
      "hÃ©p": 8992,
      "Ġ1000": 8993,
      "trol": 8994,
      "ĠSerbia": 8995,
      "Ġtrau": 8996,
      "eds": 8997,
      "DP": 8998,
      "ĠCáº¥n": 8999,
      "ĠBÃª": 9000,
      "ĠÄĲáº·t": 9001,
      "ĠChoi": 9002,
      "ĠNgÃ£": 9003,
      "739": 9004,
      "á»Ĺng": 9005,
      "ĠNano": 9006,
      "Ġ1972": 9007,
      "ĠchuyÃª": 9008,
      "há»£p": 9009,
      "NghiÃªn": 9010,
      "TÆ°": 9011,
      "ĠCÃ¹": 9012,
      "tress": 9013,
      "ĠCheng": 9014,
      "Ġná»©c": 9015,
      "ĠKhÃ¡": 9016,
      "eland": 9017,
      "ĠMetro": 9018,
      "urnley": 9019,
      "ĠchÃ¨n": 9020,
      "chen": 9021,
      "rey": 9022,
      "áº¿m": 9023,
      "ĠLat": 9024,
      "620": 9025,
      "Sáº½": 9026,
      "ĠCl": 9027,
      "khang": 9028,
      "Hiáº¿n": 9029,
      "bus": 9030,
      "ĠkWh": 9031,
      "quÃª": 9032,
      "818": 9033,
      "OM": 9034,
      "TQ": 9035,
      "nháºŃn": 9036,
      "ĠTi": 9037,
      "ĠYong": 9038,
      "ĠAston": 9039,
      "639": 9040,
      "Há»ĵi": 9041,
      "ĠÄĲÃ©c": 9042,
      "ĠBah": 9043,
      "814": 9044,
      "Thiá»ģu": 9045,
      "Kon": 9046,
      "ĠtrÃªu": 9047,
      "ĠTCT": 9048,
      "Ġkáº½m": 9049,
      "phoi": 9050,
      "bour": 9051,
      "ĠSergio": 9052,
      "609": 9053,
      "736": 9054,
      "925": 9055,
      "má»©c": 9056,
      "ngá»¥": 9057,
      "545": 9058,
      "610": 9059,
      "629": 9060,
      "tÃłi": 9061,
      "ĠbÃºp": 9062,
      "ĠÄĲÆ°a": 9063,
      "doat": 9064,
      "ĠCAD": 9065,
      "á»ģn": 9066,
      "ĠquÃ¢y": 9067,
      "ĠJim": 9068,
      "Ġmag": 9069,
      "919": 9070,
      "BO": 9071,
      "ĠUruguay": 9072,
      "Ġ169": 9073,
      "ĠchÃ©n": 9074,
      "lÃªn": 9075,
      "ĠxÄĥm": 9076,
      "ĠBruyne": 9077,
      "ĠVÄĤN": 9078,
      "ĠTTXVN": 9079,
      "táº¡m": 9080,
      "Ġgu": 9081,
      "cher": 9082,
      "624": 9083,
      "ĠGarden": 9084,
      "cáº£": 9085,
      "EUR": 9086,
      "ĠCoutinho": 9087,
      "Ġtáº¥u": 9088,
      "ĠBiáº¿n": 9089,
      "Ġmá»§": 9090,
      "ĠQuá»³": 9091,
      "729": 9092,
      "ĠpháºŃt": 9093,
      "Ġ320": 9094,
      "ĠIvan": 9095,
      "ĠLuis": 9096,
      "vÃ´": 9097,
      "ĠFanpage": 9098,
      "606": 9099,
      "928": 9100,
      "IG": 9101,
      "NASA": 9102,
      "liet": 9103,
      "Post": 9104,
      "Ġhack": 9105,
      "ĠnÃłnh": 9106,
      "ĠXX": 9107,
      "CNLÄĲ": 9108,
      "ĠSaigon": 9109,
      "OI": 9110,
      "vy": 9111,
      "ĠTá»ĳng": 9112,
      "Ġ121": 9113,
      "ĠDia": 9114,
      "Ġ1978": 9115,
      "Ġgen": 9116,
      "ĠSydney": 9117,
      "ĠCá»©u": 9118,
      "ĠÄĲiáº¹": 9119,
      "boc": 9120,
      "há»ĩ": 9121,
      "chui": 9122,
      "ĠMaguire": 9123,
      "918": 9124,
      "976": 9125,
      "260": 9126,
      "ĠSilva": 9127,
      "966": 9128,
      "Khá»": 9129,
      "goc": 9130,
      "Ġ260": 9131,
      "ampuchia": 9132,
      "Cáº£m": 9133,
      "VÃµ": 9134,
      "ĠsÆ°á»Ľng": 9135,
      "ĠCrystal": 9136,
      "Ġlá»Ŀ": 9137,
      "ĠGran": 9138,
      "cty": 9139,
      "nock": 9140,
      "ĠVTC": 9141,
      "city": 9142,
      "lec": 9143,
      "Ġ280": 9144,
      "giat": 9145,
      "945": 9146,
      "US": 9147,
      "ĠvÃłn": 9148,
      "ĠrÆ°á»¡i": 9149,
      "ĠVo": 9150,
      "788": 9151,
      "ĠSVÄĲ": 9152,
      "Ì£,": 9153,
      "had": 9154,
      "616": 9155,
      "916": 9156,
      "ĠTrÃłm": 9157,
      "Ġhormone": 9158,
      "Má»¥c": 9159,
      "ĠOsaka": 9160,
      "939": 9161,
      "959": 9162,
      "ĠChá»ĳt": 9163,
      "816": 9164,
      "Láº¡ng": 9165,
      "ĠÃ¡": 9166,
      "ĠCÃłng": 9167,
      "Ġcá»ĳi": 9168,
      "ĠMÆ¡": 9169,
      "Ġ134": 9170,
      "604": 9171,
      "ĠBá»Ńu": 9172,
      "Ġbá»«ng": 9173,
      "ĠGT": 9174,
      "cá»©u": 9175,
      "nghá»ī": 9176,
      "DXY": 9177,
      "ĠPlaza": 9178,
      "223": 9179,
      "628": 9180,
      "910": 9181,
      "927": 9182,
      "Ġvun": 9183,
      "Ġniá»ĩu": 9184,
      "ĠÄĲÃ³ng": 9185,
      "Apple": 9186,
      "Ġ1974": 9187,
      "836": 9188,
      "ĠrÃºp": 9189,
      "ĠECMO": 9190,
      "956": 9191,
      "mos": 9192,
      "ĠJon": 9193,
      "So": 9194,
      "cÃ¡n": 9195,
      "Giá»ıi": 9196,
      "Khoa": 9197,
      "andowski": 9198,
      "esti": 9199,
      "623": 9200,
      "vest": 9201,
      "ĠSoc": 9202,
      "ĠGiÃ¢y": 9203,
      "ĠSouthampton": 9204,
      "820": 9205,
      "904": 9206,
      "ĠTÃł": 9207,
      "any": 9208,
      "ĠPhÃŃ": 9209,
      "ĠChÃºa": 9210,
      "Ġ%": 9211,
      "CÅ©ng": 9212,
      "ĠBie": 9213,
      "817": 9214,
      "ĠthuÃ´": 9215,
      "ĠMaria": 9216,
      "SÃ³c": 9217,
      "Ġcá»Ľ": 9218,
      "Tri": 9219,
      "ÂłÂłÂłÂłÂłÂłÂłÂłÂłÂłÂłÂłÂłÂłÂłÂł": 9220,
      "866": 9221,
      "Ná»£": 9222,
      "ĠnÃ³c": 9223,
      "ĠLá»©c": 9224,
      "ĠFir": 9225,
      "ĠCHF": 9226,
      "Ġháº¯n": 9227,
      "ĠgÃ¢n": 9228,
      "Äĳá»Ļng": 9229,
      "dul": 9230,
      "thoat": 9231,
      "936": 9232,
      "ĠCX": 9233,
      "dotel": 9234,
      "tháº¿": 9235,
      "giau": 9236,
      "626": 9237,
      "?\"\"": 9238,
      "Ġ122": 9239,
      "915": 9240,
      "979": 9241,
      "Ġtháº¡o": 9242,
      "Ġrun": 9243,
      "819": 9244,
      "ĠNÃł": 9245,
      "Ġhá»ĳt": 9246,
      "ĠHoÃłnh": 9247,
      "NgÃ´i": 9248,
      "omega": 9249,
      "ĠAngela": 9250,
      "ĠXÃºc": 9251,
      "ĠhÆ°Æ¡": 9252,
      "ĠMobile": 9253,
      "ĠSabeco": 9254,
      "ĠCC": 9255,
      "Dáº§u": 9256,
      "Ŀm": 9257,
      "Ġtá»ĳp": 9258,
      "ĠnghÃª": 9259,
      "tland": 9260,
      "ĠSEK": 9261,
      "ĠVssID": 9262,
      "ĠLáºŃy": 9263,
      "125": 9264,
      "Cha": 9265,
      "320": 9266,
      "908": 9267,
      "chÃ¡y": 9268,
      "ĠSÃª": 9269,
      "ĠDr": 9270,
      "Ġ124": 9271,
      "988": 9272,
      "vtv": 9273,
      "beu": 9274,
      "Ġmuá»Ĺng": 9275,
      "Andr": 9276,
      "moc": 9277,
      "ĠvÃŃa": 9278,
      "603": 9279,
      "638": 9280,
      "924": 9281,
      "Ser": 9282,
      "cÆ¡n": 9283,
      "int": 9284,
      "HONG": 9285,
      "xuáº¥t": 9286,
      "530": 9287,
      "HoÃłi": 9288,
      "gl": 9289,
      "chim": 9290,
      "ĠGiÃºp": 9291,
      "XÃ¡c": 9292,
      "ĠxÆ°á»Ľc": 9293,
      "ĠApp": 9294,
      "627": 9295,
      "775": 9296,
      "946": 9297,
      "VT": 9298,
      "dro": 9299,
      "xáº¿p": 9300,
      "bÃłi": 9301,
      "ĠbÃº": 9302,
      "ĠVAT": 9303,
      "ToÃ¡n": 9304,
      "914": 9305,
      "ĠbÃ¢": 9306,
      "chang": 9307,
      "Ġ119": 9308,
      "ĠSlo": 9309,
      "ĠHá»©a": 9310,
      "803": 9311,
      "Reuters": 9312,
      "ĠThy": 9313,
      "ĠSÃ¢m": 9314,
      "Ġdiáº¹": 9315,
      "RA": 9316,
      "biáº¿n": 9317,
      "ĠngÃłi": 9318,
      "ĠGÃ¢y": 9319,
      "Ġcá»Ļi": 9320,
      "ĠchÆ°á»Ľng": 9321,
      "oln": 9322,
      "iran": 9323,
      "sey": 9324,
      "938": 9325,
      "Ġtráº·c": 9326,
      "ĠSÆ°Æ¡ng": 9327,
      "inda": 9328,
      "omin": 9329,
      "tá»ī": 9330,
      "iller": 9331,
      "845": 9332,
      "hao": 9333,
      "ĠLÃ¢u": 9334,
      "828": 9335,
      "xÃ¢y": 9336,
      "TTP": 9337,
      "ĠPeru": 9338,
      "ĠMerkel": 9339,
      "823": 9340,
      "ĠngÃ¡n": 9341,
      "asa": 9342,
      "Ġlá»Ļng": 9343,
      "ĠMicrosoft": 9344,
      "imÄĥng": 9345,
      "Ġ132": 9346,
      "gop": 9347,
      "ĠVIB": 9348,
      "ĠBillboard": 9349,
      "Ġpen": 9350,
      "chao": 9351,
      "Ġcarbon": 9352,
      "ngam": 9353,
      "Ġdá»©a": 9354,
      "ĠLÃ´i": 9355,
      "Ġ1977": 9356,
      "ĠPolking": 9357,
      "978": 9358,
      "PO": 9359,
      "§i": 9360,
      "Ġ2050": 9361,
      "ĠChÃ¡y": 9362,
      "ĠTDTT": 9363,
      "Ġ...": 9364,
      "ĠPor": 9365,
      "ĠĠĊ": 9366,
      "ison": 9367,
      "estival": 9368,
      "921": 9369,
      "Tech": 9370,
      "ĠBrighton": 9371,
      "iravir": 9372,
      "827": 9373,
      "ĠKurd": 9374,
      "ĠFernandes": 9375,
      "917": 9376,
      "ĠKáº»": 9377,
      "SÃºng": 9378,
      "main": 9379,
      "Nhu": 9380,
      "907": 9381,
      "des": 9382,
      "ĠrÃ¡t": 9383,
      "sars": 9384,
      "way": 9385,
      "ĠBO": 9386,
      "phÆ°Æ¡ng": 9387,
      "ĠJustin": 9388,
      "ÂłÂłÂł": 9389,
      "727": 9390,
      "735": 9391,
      "uen": 9392,
      "ĠHel": 9393,
      "amaha": 9394,
      "728": 9395,
      "giet": 9396,
      "Ġbr": 9397,
      "ĠCavani": 9398,
      "Is": 9399,
      "encia": 9400,
      "tráºŃn": 9401,
      "738": 9402,
      "ĠTaliban": 9403,
      "trá»Ł": 9404,
      "ienViet": 9405,
      "ead": 9406,
      "ĠStreet": 9407,
      "821": 9408,
      "Ġgameshow": 9409,
      "ĠTráº¡i": 9410,
      "ĠJan": 9411,
      "PhÃ¡": 9412,
      "gate": 9413,
      "ĠÄĲÃª": 9414,
      "ubnd": 9415,
      "!âĢĿ.": 9416,
      "gao": 9417,
      "ĠNHCSXH": 9418,
      "athip": 9419,
      "lex": 9420,
      "rang": 9421,
      "nhÆ°ng": 9422,
      "Ġláº¡y": 9423,
      "ĠDmi": 9424,
      "Ġ1968": 9425,
      "els": 9426,
      "ĠSancho": 9427,
      "uss": 9428,
      "loan": 9429,
      "ANK": 9430,
      "NhÃ¬n": 9431,
      "949": 9432,
      "ĠÄĲá»Ŀi": 9433,
      "Ġlogo": 9434,
      "ĠWo": 9435,
      "ĠsuÃ´n": 9436,
      "Ha": 9437,
      "ĠtÄĥm": 9438,
      "oren": 9439,
      "ĠBá»Ŀ": 9440,
      "uri": 9441,
      "keu": 9442,
      "Ġbáº»": 9443,
      "923": 9444,
      "ĠÄĳáº¯m": 9445,
      "pháº§n": 9446,
      "tos": 9447,
      "ĠBlan": 9448,
      "824": 9449,
      "Cuá»ĳi": 9450,
      "ĠgiÃ²n": 9451,
      "ĠJurgen": 9452,
      "MV": 9453,
      "ĠBerna": 9454,
      "929": 9455,
      "948": 9456,
      "Cáº©m": 9457,
      "gianh": 9458,
      "hran": 9459,
      "ĠgiÃ£": 9460,
      "ĠBra": 9461,
      "ĠÄĲK": 9462,
      "Phá»ĳ": 9463,
      "749": 9464,
      "bul": 9465,
      "ĠVII": 9466,
      "hit": 9467,
      "vax": 9468,
      "derson": 9469,
      "975": 9470,
      "ĠVir": 9471,
      "apor": 9472,
      "ĠĠĠĠĠĠ": 9473,
      "519": 9474,
      "879": 9475,
      "ball": 9476,
      "pu": 9477,
      "Ã¬a": 9478,
      "ameyang": 9479,
      "ĠWenger": 9480,
      "fael": 9481,
      "875": 9482,
      "899": 9483,
      "Ġbá»¥c": 9484,
      "116": 9485,
      "ĠTNLÄĲ": 9486,
      "839": 9487,
      "903": 9488,
      "sÃ¢n": 9489,
      "nld": 9490,
      "Ġtua": 9491,
      "ĠcÃµ": 9492,
      "ĠCit": 9493,
      "650": 9494,
      "coi": 9495,
      "Ġtrá»įt": 9496,
      "ĠGáº¡c": 9497,
      "kiá»ĥm": 9498,
      "soi": 9499,
      "ĠÄĳÃ¡i": 9500,
      "Ġsi": 9501,
      "ĠPhil": 9502,
      "ĠZelensky": 9503,
      "MÃ´n": 9504,
      "ium": 9505,
      "ronaldo": 9506,
      "ĠPetro": 9507,
      "bishi": 9508,
      "ĠNáº±m": 9509,
      "dut": 9510,
      "ĠbÃºn": 9511,
      "ĠNig": 9512,
      "angthong": 9513,
      "Ġyo": 9514,
      "514": 9515,
      "VÃ¹ng": 9516,
      "nhe": 9517,
      "ĠSSI": 9518,
      "ĠphÃ´i": 9519,
      "ĠBurnley": 9520,
      "Ġphá»Ł": 9521,
      "manuel": 9522,
      "olymp": 9523,
      "Ġnáº§n": 9524,
      "ĠNar": 9525,
      "ĠÄĲá»¨C": 9526,
      "ngung": 9527,
      "Ġngáº¯t": 9528,
      "Ġres": 9529,
      "986": 9530,
      "Po": 9531,
      "ĠBas": 9532,
      "Ġbá»±c": 9533,
      "ĠPáº¯k": 9534,
      "ĠBá»īnh": 9535,
      "ĠModric": 9536,
      "ces": 9537,
      "Ġlanh": 9538,
      "ĠmÄĥ": 9539,
      "ĠNico": 9540,
      "ĠTháº»": 9541,
      "ĠSM": 9542,
      "Pháº§n": 9543,
      "ĠPlus": 9544,
      "KÃ½": 9545,
      "ĠhÃ´ng": 9546,
      "bÃ¡o": 9547,
      "hama": 9548,
      "yÃªu": 9549,
      "nhiá»ĩm": 9550,
      "ĠBBC": 9551,
      "ĠTha": 9552,
      "ĠKá»ĭch": 9553,
      "ĠkhoÃ¡t": 9554,
      "terling": 9555,
      "ĠÄĲoan": 9556,
      "ĠDiego": 9557,
      "Huyá»ģn": 9558,
      "ĠNgáº¡n": 9559,
      "Ġ146": 9560,
      "NV": 9561,
      "á»©ng": 9562,
      "Ġtáº£n": 9563,
      "ĠNov": 9564,
      "ĠPau": 9565,
      "hÃ³i": 9566,
      "510": 9567,
      "619": 9568,
      "ĠbÃºa": 9569,
      "Ġ330": 9570,
      "Ġtoáº¡": 9571,
      "NTech": 9572,
      "ĠHSSV": 9573,
      "813": 9574,
      "ĠValentine": 9575,
      "It": 9576,
      "lut": 9577,
      "ĠÄĲáº¥y": 9578,
      "222": 9579,
      "838": 9580,
      "Ġmá»³": 9581,
      "Chiáº¿c": 9582,
      "itsubishi": 9583,
      "846": 9584,
      "LOS": 9585,
      "XÄĥng": 9586,
      "suy": 9587,
      "Ġrapper": 9588,
      "CÃ¡i": 9589,
      "ĠVoi": 9590,
      "635": 9591,
      "ĠlÃ¡n": 9592,
      "Ġque": 9593,
      "ĠWan": 9594,
      "656": 9595,
      "wich": 9596,
      "ngap": 9597,
      "ĠThÃ¡m": 9598,
      "ĠKhuáº¥t": 9599,
      "170": 9600,
      "...âĢĿ.": 9601,
      "989": 9602,
      "Ġomega": 9603,
      "ienVietPost": 9604,
      "856": 9605,
      "ĠVÃłi": 9606,
      "ĠQue": 9607,
      "una": 9608,
      "Ġcá»¥t": 9609,
      "Ġke": 9610,
      "ĠYa": 9611,
      "ĠLá»Ľp": 9612,
      "Ġgháº»": 9613,
      "621": 9614,
      "ĠCer": 9615,
      "thÆ°Æ¡ng": 9616,
      "637": 9617,
      "778": 9618,
      "CD": 9619,
      "ĠngÃ¹i": 9620,
      "ĠThá»Ł": 9621,
      "espa": 9622,
      "102": 9623,
      "270": 9624,
      "ĠTikTok": 9625,
      "Tá»Ļi": 9626,
      "sáº£n": 9627,
      "645": 9628,
      "ĠBÃ¡nh": 9629,
      "ĠBre": 9630,
      "HÄĲND": 9631,
      "835": 9632,
      "Ġká»ĩ": 9633,
      "ĠVar": 9634,
      "ĠDep": 9635,
      "ĠVillarreal": 9636,
      "659": 9637,
      "ĠhuyÃª": 9638,
[...]
